{
  "version": "1.0",
  "truncation": null,
  "padding": null,
  "added_tokens": [
    {
      "id": 0,
      "content": "<PAD>",
      "single_word": false,
      "lstrip": false,
      "rstrip": false,
      "normalized": false,
      "special": true
    },
    {
      "id": 1,
      "content": "<UNK>",
      "single_word": false,
      "lstrip": false,
      "rstrip": false,
      "normalized": false,
      "special": true
    },
    {
      "id": 2,
      "content": "<BOS>",
      "single_word": false,
      "lstrip": false,
      "rstrip": false,
      "normalized": false,
      "special": true
    },
    {
      "id": 3,
      "content": "<EOS>",
      "single_word": false,
      "lstrip": false,
      "rstrip": false,
      "normalized": false,
      "special": true
    }
  ],
  "normalizer": null,
  "pre_tokenizer": {
    "type": "Whitespace"
  },
  "post_processor": null,
  "decoder": null,
  "model": {
    "type": "BPE",
    "dropout": null,
    "unk_token": "<UNK>",
    "continuing_subword_prefix": null,
    "end_of_word_suffix": null,
    "fuse_unk": false,
    "byte_fallback": false,
    "ignore_merges": false,
    "vocab": {
      "<PAD>": 0,
      "<UNK>": 1,
      "<BOS>": 2,
      "<EOS>": 3,
      "!": 4,
      "\"": 5,
      "#": 6,
      "$": 7,
      "%": 8,
      "&": 9,
      "'": 10,
      "(": 11,
      ")": 12,
      "*": 13,
      "+": 14,
      ",": 15,
      "-": 16,
      ".": 17,
      "/": 18,
      "0": 19,
      "1": 20,
      "2": 21,
      "3": 22,
      "4": 23,
      "5": 24,
      "6": 25,
      "7": 26,
      "8": 27,
      "9": 28,
      ":": 29,
      ";": 30,
      "<": 31,
      "=": 32,
      ">": 33,
      "?": 34,
      "@": 35,
      "A": 36,
      "B": 37,
      "C": 38,
      "D": 39,
      "E": 40,
      "F": 41,
      "G": 42,
      "H": 43,
      "I": 44,
      "J": 45,
      "K": 46,
      "L": 47,
      "M": 48,
      "N": 49,
      "O": 50,
      "P": 51,
      "Q": 52,
      "R": 53,
      "S": 54,
      "T": 55,
      "U": 56,
      "V": 57,
      "W": 58,
      "X": 59,
      "Y": 60,
      "Z": 61,
      "[": 62,
      "]": 63,
      "^": 64,
      "_": 65,
      "`": 66,
      "a": 67,
      "b": 68,
      "c": 69,
      "d": 70,
      "e": 71,
      "f": 72,
      "g": 73,
      "h": 74,
      "i": 75,
      "j": 76,
      "k": 77,
      "l": 78,
      "m": 79,
      "n": 80,
      "o": 81,
      "p": 82,
      "q": 83,
      "r": 84,
      "s": 85,
      "t": 86,
      "u": 87,
      "v": 88,
      "w": 89,
      "x": 90,
      "y": 91,
      "z": 92,
      "{": 93,
      "|": 94,
      "}": 95,
      "~": 96,
      "£": 97,
      "§": 98,
      "«": 99,
      "°": 100,
      "´": 101,
      "¶": 102,
      "·": 103,
      "º": 104,
      "»": 105,
      "½": 106,
      "¾": 107,
      "Á": 108,
      "Æ": 109,
      "Ç": 110,
      "È": 111,
      "É": 112,
      "Ë": 113,
      "Ï": 114,
      "Ú": 115,
      "Ü": 116,
      "Þ": 117,
      "ß": 118,
      "à": 119,
      "á": 120,
      "â": 121,
      "ä": 122,
      "æ": 123,
      "ç": 124,
      "è": 125,
      "é": 126,
      "ê": 127,
      "ë": 128,
      "ì": 129,
      "í": 130,
      "î": 131,
      "ï": 132,
      "ð": 133,
      "ñ": 134,
      "ò": 135,
      "ó": 136,
      "ô": 137,
      "õ": 138,
      "ö": 139,
      "ù": 140,
      "ú": 141,
      "û": 142,
      "ü": 143,
      "ý": 144,
      "þ": 145,
      "ō": 146,
      "Œ": 147,
      "œ": 148,
      "ŭ": 149,
      "Α": 150,
      "Γ": 151,
      "Δ": 152,
      "Ε": 153,
      "Θ": 154,
      "Κ": 155,
      "Λ": 156,
      "Μ": 157,
      "Ν": 158,
      "Ξ": 159,
      "Ο": 160,
      "Π": 161,
      "Σ": 162,
      "Φ": 163,
      "ά": 164,
      "έ": 165,
      "ή": 166,
      "ί": 167,
      "α": 168,
      "β": 169,
      "γ": 170,
      "δ": 171,
      "ε": 172,
      "ζ": 173,
      "η": 174,
      "θ": 175,
      "ι": 176,
      "κ": 177,
      "λ": 178,
      "μ": 179,
      "ν": 180,
      "ξ": 181,
      "ο": 182,
      "π": 183,
      "ρ": 184,
      "ς": 185,
      "σ": 186,
      "τ": 187,
      "υ": 188,
      "φ": 189,
      "χ": 190,
      "ω": 191,
      "ό": 192,
      "ύ": 193,
      "ώ": 194,
      "ἀ": 195,
      "ἂ": 196,
      "ἄ": 197,
      "ἅ": 198,
      "ἆ": 199,
      "ἐ": 200,
      "ἑ": 201,
      "ἒ": 202,
      "ἔ": 203,
      "ἕ": 204,
      "ἠ": 205,
      "ἡ": 206,
      "ἤ": 207,
      "ἦ": 208,
      "ἰ": 209,
      "ἱ": 210,
      "ἴ": 211,
      "ἵ": 212,
      "ἷ": 213,
      "Ἰ": 214,
      "ὀ": 215,
      "ὁ": 216,
      "ὄ": 217,
      "ὅ": 218,
      "Ὀ": 219,
      "Ὁ": 220,
      "Ὅ": 221,
      "ὐ": 222,
      "ὔ": 223,
      "ὡ": 224,
      "ὦ": 225,
      "Ὡ": 226,
      "ὰ": 227,
      "ὲ": 228,
      "ὴ": 229,
      "ὶ": 230,
      "ὸ": 231,
      "ὺ": 232,
      "ὼ": 233,
      "ᾳ": 234,
      "ᾶ": 235,
      "ῆ": 236,
      "ῇ": 237,
      "ῖ": 238,
      "ῤ": 239,
      "ῥ": 240,
      "ῦ": 241,
      "ῳ": 242,
      "ῶ": 243,
      "ῷ": 244,
      "–": 245,
      "—": 246,
      "‘": 247,
      "’": 248,
      "“": 249,
      "”": 250,
      "„": 251,
      "†": 252,
      "‡": 253,
      "•": 254,
      "…": 255,
      "′": 256,
      "″": 257,
      "™": 258,
      "・": 259,
      "th": 260,
      "in": 261,
      "the": 262,
      "an": 263,
      "er": 264,
      "re": 265,
      "ou": 266,
      "on": 267,
      "en": 268,
      "at": 269,
      "ed": 270,
      "is": 271,
      "to": 272,
      "and": 273,
      "as": 274,
      "of": 275,
      "or": 276,
      "ing": 277,
      "es": 278,
      "ar": 279,
      "he": 280,
      "it": 281,
      "ll": 282,
      "le": 283,
      "se": 284,
      "ha": 285,
      "st": 286,
      "me": 287,
      "be": 288,
      "ch": 289,
      "no": 290,
      "wh": 291,
      "ro": 292,
      "wi": 293,
      "ve": 294,
      "ce": 295,
      "al": 296,
      "ut": 297,
      "ly": 298,
      "ld": 299,
      "id": 300,
      "ent": 301,
      "that": 302,
      "was": 303,
      "gh": 304,
      "you": 305,
      "ion": 306,
      "for": 307,
      "im": 308,
      "ver": 309,
      "li": 310,
      "ay": 311,
      "de": 312,
      "with": 313,
      "ir": 314,
      "his": 315,
      "so": 316,
      "ow": 317,
      "her": 318,
      "ri": 319,
      "all": 320,
      "un": 321,
      "co": 322,
      "ter": 323,
      "ct": 324,
      "not": 325,
      "ad": 326,
      "had": 327,
      "ght": 328,
      "su": 329,
      "sa": 330,
      "ould": 331,
      "mo": 332,
      "ra": 333,
      "ther": 334,
      "lo": 335,
      "ke": 336,
      "ne": 337,
      "ur": 338,
      "ab": 339,
      "we": 340,
      "ag": 341,
      "us": 342,
      "my": 343,
      "fe": 344,
      "ic": 345,
      "pe": 346,
      "are": 347,
      "whi": 348,
      "one": 349,
      "la": 350,
      "out": 351,
      "nd": 352,
      "qu": 353,
      "con": 354,
      "him": 355,
      "ere": 356,
      "The": 357,
      "po": 358,
      "but": 359,
      "et": 360,
      "have": 361,
      "ess": 362,
      "ain": 363,
      "man": 364,
      "by": 365,
      "am": 366,
      "which": 367,
      "our": 368,
      "od": 369,
      ".”": 370,
      "il": 371,
      "sh": 372,
      "do": 373,
      "up": 374,
      "she": 375,
      "per": 376,
      "if": 377,
      "ac": 378,
      "rom": 379,
      "go": 380,
      "te": 381,
      "this": 382,
      "ard": 383,
      "est": 384,
      "ation": 385,
      "res": 386,
      "now": 387,
      "ex": 388,
      "ant": 389,
      "from": 390,
      "said": 391,
      "wor": 392,
      "ul": 393,
      "ma": 394,
      "who": 395,
      "fo": 396,
      "ill": 397,
      "they": 398,
      "com": 399,
      "ind": 400,
      "ous": 401,
      "end": 402,
      "were": 403,
      "ust": 404,
      "very": 405,
      "thing": 406,
      ",”": 407,
      "art": 408,
      "ap": 409,
      "sel": 410,
      "ate": 411,
      "ge": 412,
      "ment": 413,
      "ok": 414,
      "ight": 415,
      "pro": 416,
      "ast": 417,
      "them": 418,
      "ound": 419,
      "fa": 420,
      "would": 421,
      "ist": 422,
      "ong": 423,
      "ho": 424,
      "any": 425,
      "ck": 426,
      "there": 427,
      "He": 428,
      "some": 429,
      "der": 430,
      "ca": 431,
      "way": 432,
      "their": 433,
      "other": 434,
      "will": 435,
      "ber": 436,
      "see": 437,
      "ti": 438,
      "ven": 439,
      "been": 440,
      "own": 441,
      "tr": 442,
      "self": 443,
      "ure": 444,
      "ive": 445,
      "wo": 446,
      "ough": 447,
      "ta": 448,
      "when": 449,
      "could": 450,
      "Th": 451,
      "your": 452,
      "op": 453,
      "bo": 454,
      "si": 455,
      "what": 456,
      "It": 457,
      "itt": 458,
      "know": 459,
      "?”": 460,
      "can": 461,
      "ish": 462,
      "able": 463,
      "ity": 464,
      "more": 465,
      "And": 466,
      "ence": 467,
      "af": 468,
      "red": 469,
      "fore": 470,
      "pr": 471,
      "Mr": 472,
      "ect": 473,
      "here": 474,
      "ine": 475,
      "reat": 476,
      "ci": 477,
      "Wh": 478,
      "But": 479,
      "ie": 480,
      "ance": 481,
      "dis": 482,
      "than": 483,
      "like": 484,
      "ved": 485,
      "ers": 486,
      "ree": 487,
      "um": 488,
      "el": 489,
      "ble": 490,
      "ol": 491,
      "into": 492,
      "pl": 493,
      "ite": 494,
      "ide": 495,
      "ought": 496,
      "ig": 497,
      "ry": 498,
      "king": 499,
      "ort": 500,
      "med": 501,
      "day": 502,
      "pre": 503,
      "ass": 504,
      "ep": 505,
      "om": 506,
      "urn": 507,
      "oun": 508,
      "ans": 509,
      "ject": 510,
      "then": 511,
      "tain": 512,
      "pos": 513,
      "sha": 514,
      "pp": 515,
      "about": 516,
      "look": 517,
      "men": 518,
      "over": 519,
      "its": 520,
      "work": 521,
      "upon": 522,
      "did": 523,
      "ear": 524,
      "should": 525,
      "pt": 526,
      "time": 527,
      "ire": 528,
      "pres": 529,
      "ang": 530,
      "pla": 531,
      "part": 532,
      "use": 533,
      "row": 534,
      "has": 535,
      "say": 536,
      "ink": 537,
      "ittle": 538,
      "--": 539,
      "hand": 540,
      "uch": 541,
      "again": 542,
      "sp": 543,
      "only": 544,
      "int": 545,
      "ving": 546,
      "must": 547,
      "little": 548,
      "ever": 549,
      "ally": 550,
      "ice": 551,
      "how": 552,
      "!”": 553,
      "ty": 554,
      "turn": 555,
      "come": 556,
      "ple": 557,
      "gr": 558,
      "long": 559,
      "ions": 560,
      "ary": 561,
      "cl": 562,
      "ach": 563,
      "most": 564,
      "ves": 565,
      "age": 566,
      "ud": 567,
      "great": 568,
      "read": 569,
      "ies": 570,
      "may": 571,
      "str": 572,
      "ue": 573,
      "let": 574,
      "spe": 575,
      "ull": 576,
      "led": 577,
      "br": 578,
      "good": 579,
      "ob": 580,
      "such": 581,
      "mar": 582,
      "sto": 583,
      "off": 584,
      "ward": 585,
      "pa": 586,
      "You": 587,
      "She": 588,
      "under": 589,
      "des": 590,
      "tra": 591,
      "ated": 592,
      "before": 593,
      "much": 594,
      "ked": 595,
      "son": 596,
      "We": 597,
      "ser": 598,
      "less": 599,
      "well": 600,
      "fir": 601,
      "ful": 602,
      "mon": 603,
      "where": 604,
      "gl": 605,
      "after": 606,
      "made": 607,
      "In": 608,
      "ise": 609,
      "came": 610,
      "ness": 611,
      "every": 612,
      "right": 613,
      "ey": 614,
      "down": 615,
      "never": 616,
      "ot": 617,
      "ak": 618,
      "che": 619,
      "new": 620,
      "coun": 621,
      "uten": 622,
      "might": 623,
      "Pro": 624,
      "ack": 625,
      "two": 626,
      "au": 627,
      "berg": 628,
      "light": 629,
      "utenberg": 630,
      "arm": 631,
      "ave": 632,
      "les": 633,
      "think": 634,
      "even": 635,
      "em": 636,
      "ning": 637,
      "sc": 638,
      "thought": 639,
      "ried": 640,
      "shall": 641,
      "vo": 642,
      "old": 643,
      "iss": 644,
      "don": 645,
      "first": 646,
      "fer": 647,
      "ose": 648,
      "ouse": 649,
      "ces": 650,
      "these": 651,
      "par": 652,
      "llow": 653,
      "bet": 654,
      "fort": 655,
      "ps": 656,
      "went": 657,
      "di": 658,
      "just": 659,
      "Project": 660,
      "Gutenberg": 661,
      "get": 662,
      "lt": 663,
      "ren": 664,
      "vi": 665,
      "ph": 666,
      "dist": 667,
      "low": 668,
      "without": 669,
      "make": 670,
      "too": 671,
      "form": 672,
      "himself": 673,
      "ced": 674,
      "cer": 675,
      "There": 676,
      "ten": 677,
      "tell": 678,
      "thr": 679,
      "ered": 680,
      "being": 681,
      "back": 682,
      "word": 683,
      "cor": 684,
      "ft": 685,
      "fri": 686,
      "tor": 687,
      "ction": 688,
      "lie": 689,
      "na": 690,
      "gi": 691,
      "mor": 692,
      "head": 693,
      "clo": 694,
      "inter": 695,
      "ick": 696,
      "beg": 697,
      "full": 698,
      "night": 699,
      "friend": 700,
      "ily": 701,
      "comp": 702,
      "tre": 703,
      "appe": 704,
      "away": 705,
      "What": 706,
      "house": 707,
      "ase": 708,
      "sm": 709,
      "ner": 710,
      "rep": 711,
      "They": 712,
      "ait": 713,
      "ran": 714,
      "min": 715,
      "ath": 716,
      "No": 717,
      "through": 718,
      "que": 719,
      "cess": 720,
      "cy": 721,
      "att": 722,
      "life": 723,
      "pass": 724,
      "found": 725,
      "du": 726,
      "though": 727,
      "If": 728,
      "car": 729,
      "hi": 730,
      "ened": 731,
      "last": 732,
      "set": 733,
      "call": 734,
      "ared": 735,
      "room": 736,
      "sur": 737,
      "ng": 738,
      "nothing": 739,
      "ious": 740,
      "eyes": 741,
      "chi": 742,
      "qui": 743,
      "Mrs": 744,
      "still": 745,
      "ted": 746,
      "bl": 747,
      "place": 748,
      "young": 749,
      "wat": 750,
      "cted": 751,
      "ss": 752,
      "ations": 753,
      "nat": 754,
      "cons": 755,
      "Ar": 756,
      "So": 757,
      "ars": 758,
      "those": 759,
      "den": 760,
      "cont": 761,
      "happ": 762,
      "To": 763,
      "cause": 764,
      "atter": 765,
      "take": 766,
      "This": 767,
      "ways": 768,
      "stand": 769,
      "nor": 770,
      "land": 771,
      "cle": 772,
      "bro": 773,
      "while": 774,
      "That": 775,
      "mind": 776,
      "aw": 777,
      "bre": 778,
      "ings": 779,
      "ken": 780,
      "saw": 781,
      "pi": 782,
      "put": 783,
      "want": 784,
      "cour": 785,
      "yet": 786,
      "face": 787,
      "side": 788,
      "many": 789,
      "lic": 790,
      "same": 791,
      "cr": 792,
      "ition": 793,
      "Then": 794,
      "ret": 795,
      "gu": 796,
      "ms": 797,
      "av": 798,
      "ef": 799,
      "ele": 800,
      "wr": 801,
      "got": 802,
      "ress": 803,
      "oc": 804,
      "ently": 805,
      "ens": 806,
      "give": 807,
      "try": 808,
      "vis": 809,
      "hor": 810,
      "ting": 811,
      "mer": 812,
      "ron": 813,
      "St": 814,
      "fi": 815,
      "und": 816,
      "lu": 817,
      "door": 818,
      "bod": 819,
      "heart": 820,
      "ople": 821,
      "press": 822,
      "cha": 823,
      "turned": 824,
      "ord": 825,
      "things": 826,
      "moment": 827,
      "feel": 828,
      "imp": 829,
      "sure": 830,
      "vid": 831,
      "fect": 832,
      "year": 833,
      "air": 834,
      "rest": 835,
      "ER": 836,
      "ener": 837,
      "ith": 838,
      "bed": 839,
      "reg": 840,
      "ged": 841,
      "ark": 842,
      "point": 843,
      "seemed": 844,
      "thy": 845,
      "vent": 846,
      "dif": 847,
      "As": 848,
      "kind": 849,
      "act": 850,
      "jo": 851,
      "far": 852,
      "always": 853,
      "eng": 854,
      "tal": 855,
      "another": 856,
      "ins": 857,
      "took": 858,
      "ince": 859,
      "main": 860,
      "once": 861,
      "people": 862,
      "tem": 863,
      "ts": 864,
      "father": 865,
      "ished": 866,
      "looked": 867,
      "ub": 868,
      "For": 869,
      "heard": 870,
      "cur": 871,
      "ense": 872,
      "Mar": 873,
      "lf": 874,
      "love": 875,
      "ks": 876,
      "char": 877,
      "ates": 878,
      "ush": 879,
      "left": 880,
      "hel": 881,
      "tim": 882,
      "sub": 883,
      "une": 884,
      "Ch": 885,
      "unt": 886,
      "gra": 887,
      "world": 888,
      "find": 889,
      "os": 890,
      "ited": 891,
      "three": 892,
      "icul": 893,
      "cop": 894,
      "child": 895,
      "reas": 896,
      "ange": 897,
      "sat": 898,
      "pleas": 899,
      "ither": 900,
      "sol": 901,
      "law": 902,
      "mber": 903,
      "wind": 904,
      "add": 905,
      "dra": 906,
      "certain": 907,
      "won": 908,
      "soon": 909,
      "body": 910,
      "ian": 911,
      "answ": 912,
      "spo": 913,
      "near": 914,
      "follow": 915,
      "When": 916,
      "wards": 917,
      "Be": 918,
      "inst": 919,
      "lied": 920,
      "iness": 921,
      "quite": 922,
      "ined": 923,
      "ton": 924,
      "used": 925,
      "ched": 926,
      "round": 927,
      "comm": 928,
      "possi": 929,
      "ready": 930,
      "done": 931,
      "ady": 932,
      "cept": 933,
      "half": 934,
      "rew": 935,
      "Yes": 936,
      "God": 937,
      "seen": 938,
      "myself": 939,
      "ond": 940,
      "Jo": 941,
      "going": 942,
      "TH": 943,
      "pri": 944,
      "belie": 945,
      "gn": 946,
      "My": 947,
      "hour": 948,
      "oub": 949,
      "iz": 950,
      "against": 951,
      "Well": 952,
      "cri": 953,
      "better": 954,
      "gent": 955,
      "care": 956,
      "cap": 957,
      "quest": 958,
      "person": 959,
      "At": 960,
      "pose": 961,
      "Miss": 962,
      "deed": 963,
      "ash": 964,
      "cei": 965,
      "ign": 966,
      "having": 967,
      "felt": 968,
      "aut": 969,
      "because": 970,
      "fl": 971,
      "present": 972,
      "ile": 973,
      "hard": 974,
      "sil": 975,
      "home": 976,
      "asked": 977,
      "something": 978,
      "val": 979,
      "times": 980,
      "vers": 981,
      "ments": 982,
      "pur": 983,
      "How": 984,
      "dear": 985,
      "enough": 986,
      "bla": 987,
      "bit": 988,
      "mother": 989,
      "sent": 990,
      "ped": 991,
      "mes": 992,
      "knew": 993,
      "ene": 994,
      "ru": 995,
      "Oh": 996,
      "ref": 997,
      "sho": 998,
      "each": 999,
      "hear": 1000,
      "AN": 1001,
      "herself": 1002,
      "few": 1003,
      "cho": 1004,
      "words": 1005,
      "His": 1006,
      "cover": 1007,
      "stood": 1008,
      "agree": 1009,
      "cu": 1010,
      "..": 1011,
      "course": 1012,
      "mas": 1013,
      "ters": 1014,
      "ween": 1015,
      "wal": 1016,
      "ff": 1017,
      "cond": 1018,
      "whom": 1019,
      "keep": 1020,
      "shi": 1021,
      "told": 1022,
      "hands": 1023,
      "also": 1024,
      "ended": 1025,
      "ical": 1026,
      "gg": 1027,
      "ribut": 1028,
      "sou": 1029,
      "lle": 1030,
      "pow": 1031,
      "hold": 1032,
      "lay": 1033,
      "En": 1034,
      "stru": 1035,
      "order": 1036,
      "fin": 1037,
      "ris": 1038,
      "selves": 1039,
      "ures": 1040,
      "count": 1041,
      "haps": 1042,
      "morning": 1043,
      "pect": 1044,
      "woman": 1045,
      "high": 1046,
      "copy": 1047,
      "whole": 1048,
      "fam": 1049,
      "ating": 1050,
      "EN": 1051,
      "works": 1052,
      "mis": 1053,
      "name": 1054,
      "replied": 1055,
      "rather": 1056,
      "reason": 1057,
      "mean": 1058,
      "cannot": 1059,
      "between": 1060,
      "gener": 1061,
      "gether": 1062,
      "port": 1063,
      "sing": 1064,
      "ute": 1065,
      "bu": 1066,
      "wish": 1067,
      "speak": 1068,
      "together": 1069,
      "rel": 1070,
      "war": 1071,
      "cried": 1072,
      "days": 1073,
      "gave": 1074,
      "ling": 1075,
      "among": 1076,
      "serv": 1077,
      "both": 1078,
      "open": 1079,
      "xt": 1080,
      "sup": 1081,
      "Un": 1082,
      "fall": 1083,
      "poor": 1084,
      "ross": 1085,
      "ised": 1086,
      "wn": 1087,
      "ung": 1088,
      "began": 1089,
      "ied": 1090,
      "oud": 1091,
      "years": 1092,
      "On": 1093,
      "however": 1094,
      "cas": 1095,
      "does": 1096,
      "cla": 1097,
      "vol": 1098,
      "possible": 1099,
      "An": 1100,
      "ather": 1101,
      "pped": 1102,
      "mi": 1103,
      "Do": 1104,
      "lar": 1105,
      "ste": 1106,
      "conf": 1107,
      "gentle": 1108,
      "fully": 1109,
      "sir": 1110,
      "contin": 1111,
      "till": 1112,
      "play": 1113,
      "elect": 1114,
      "anything": 1115,
      "ately": 1116,
      "run": 1117,
      "water": 1118,
      "cent": 1119,
      "voice": 1120,
      "eas": 1121,
      "small": 1122,
      "rown": 1123,
      "ys": 1124,
      "matter": 1125,
      "ors": 1126,
      "itu": 1127,
      "member": 1128,
      "Ne": 1129,
      "doub": 1130,
      "consid": 1131,
      "Now": 1132,
      "dark": 1133,
      "bus": 1134,
      "called": 1135,
      "ery": 1136,
      "almost": 1137,
      "anger": 1138,
      "fair": 1139,
      "Ro": 1140,
      "hu": 1141,
      "II": 1142,
      "tri": 1143,
      "show": 1144,
      "dire": 1145,
      ",—": 1146,
      "sk": 1147,
      "Mon": 1148,
      "ial": 1149,
      "country": 1150,
      "hon": 1151,
      "looking": 1152,
      "hope": 1153,
      "ield": 1154,
      "spir": 1155,
      "bar": 1156,
      "ream": 1157,
      "return": 1158,
      "gone": 1159,
      "ister": 1160,
      "sle": 1161,
      "best": 1162,
      "cal": 1163,
      "wood": 1164,
      "whose": 1165,
      "adv": 1166,
      "Bo": 1167,
      "sun": 1168,
      "ls": 1169,
      "since": 1170,
      "CH": 1171,
      "ient": 1172,
      "fre": 1173,
      "blo": 1174,
      "indeed": 1175,
      "lau": 1176,
      "bra": 1177,
      "four": 1178,
      "remain": 1179,
      "col": 1180,
      "ronic": 1181,
      "gir": 1182,
      "thus": 1183,
      "mark": 1184,
      "thou": 1185,
      "help": 1186,
      "whe": 1187,
      "ceived": 1188,
      "towards": 1189,
      "orn": 1190,
      "wonder": 1191,
      "LI": 1192,
      "death": 1193,
      "Why": 1194,
      "ceed": 1195,
      "ye": 1196,
      "ship": 1197,
      "given": 1198,
      "within": 1199,
      "need": 1200,
      "appear": 1201,
      "Her": 1202,
      "black": 1203,
      "dden": 1204,
      "electronic": 1205,
      "taken": 1206,
      "known": 1207,
      "hind": 1208,
      "aven": 1209,
      "sign": 1210,
      "believe": 1211,
      "kes": 1212,
      "medi": 1213,
      "tru": 1214,
      "ane": 1215,
      "ons": 1216,
      "sec": 1217,
      "pain": 1218,
      "cou": 1219,
      "perhaps": 1220,
      "brought": 1221,
      "ual": 1222,
      "ned": 1223,
      "sudden": 1224,
      "swe": 1225,
      "true": 1226,
      "laugh": 1227,
      "dead": 1228,
      "oney": 1229,
      "wait": 1230,
      "gre": 1231,
      "really": 1232,
      "ame": 1233,
      "feet": 1234,
      "vil": 1235,
      "beaut": 1236,
      "iter": 1237,
      ".\"": 1238,
      "With": 1239,
      "pas": 1240,
      "passed": 1241,
      "ably": 1242,
      "others": 1243,
      "band": 1244,
      "interest": 1245,
      "appeared": 1246,
      "power": 1247,
      "ask": 1248,
      "peri": 1249,
      "next": 1250,
      "fear": 1251,
      "often": 1252,
      "least": 1253,
      "ket": 1254,
      "sever": 1255,
      "thee": 1256,
      "themselves": 1257,
      "arri": 1258,
      "understand": 1259,
      "fire": 1260,
      "Co": 1261,
      "ni": 1262,
      "ze": 1263,
      "iled": 1264,
      "bes": 1265,
      "sea": 1266,
      "Of": 1267,
      "strong": 1268,
      "ON": 1269,
      "je": 1270,
      "sor": 1271,
      "vill": 1272,
      "ground": 1273,
      "coming": 1274,
      "miss": 1275,
      "step": 1276,
      "dam": 1277,
      "vie": 1278,
      "sound": 1279,
      "Ma": 1280,
      "state": 1281,
      "alone": 1282,
      "IN": 1283,
      "ches": 1284,
      "leave": 1285,
      "cir": 1286,
      "white": 1287,
      "ides": 1288,
      "ses": 1289,
      "differ": 1290,
      "wall": 1291,
      "inc": 1292,
      "Po": 1293,
      "abo": 1294,
      "friends": 1295,
      "app": 1296,
      "doubt": 1297,
      "sort": 1298,
      "continu": 1299,
      "met": 1300,
      "ancy": 1301,
      "case": 1302,
      "Al": 1303,
      "nature": 1304,
      "necess": 1305,
      "pret": 1306,
      "ace": 1307,
      "THE": 1308,
      "agn": 1309,
      "All": 1310,
      "window": 1311,
      "ants": 1312,
      "reach": 1313,
      "oft": 1314,
      "fact": 1315,
      "therefore": 1316,
      "money": 1317,
      "De": 1318,
      "Go": 1319,
      "undred": 1320,
      "posed": 1321,
      "prom": 1322,
      "AR": 1323,
      "tu": 1324,
      "already": 1325,
      "remember": 1326,
      "Is": 1327,
      "hundred": 1328,
      "ank": 1329,
      "ison": 1330,
      "ages": 1331,
      "either": 1332,
      "second": 1333,
      "OR": 1334,
      "cut": 1335,
      "soci": 1336,
      "express": 1337,
      "ities": 1338,
      "claim": 1339,
      "ia": 1340,
      "cus": 1341,
      "large": 1342,
      "free": 1343,
      "terms": 1344,
      "Found": 1345,
      "means": 1346,
      "brother": 1347,
      "Se": 1348,
      "mat": 1349,
      "wa": 1350,
      "happy": 1351,
      "stra": 1352,
      "num": 1353,
      "ident": 1354,
      "pay": 1355,
      "ering": 1356,
      "live": 1357,
      "incl": 1358,
      "else": 1359,
      "va": 1360,
      "Foundation": 1361,
      "behind": 1362,
      "ances": 1363,
      "Engl": 1364,
      "sy": 1365,
      "TER": 1366,
      "suc": 1367,
      "ility": 1368,
      "manner": 1369,
      "sum": 1370,
      "earth": 1371,
      "letter": 1372,
      "evening": 1373,
      "creat": 1374,
      "question": 1375,
      "fellow": 1376,
      "ird": 1377,
      "arms": 1378,
      "AP": 1379,
      "five": 1380,
      "appro": 1381,
      "fell": 1382,
      "igh": 1383,
      "prof": 1384,
      "dest": 1385,
      "ster": 1386,
      "book": 1387,
      "natur": 1388,
      "real": 1389,
      "uring": 1390,
      "cked": 1391,
      "Pe": 1392,
      "distribut": 1393,
      "why": 1394,
      "non": 1395,
      "ety": 1396,
      "als": 1397,
      "plain": 1398,
      "clear": 1399,
      "ctor": 1400,
      "fast": 1401,
      "imag": 1402,
      "deep": 1403,
      "compan": 1404,
      "dro": 1405,
      "dri": 1406,
      "list": 1407,
      "lear": 1408,
      "along": 1409,
      "joy": 1410,
      "ured": 1411,
      "io": 1412,
      "rid": 1413,
      "ief": 1414,
      "wife": 1415,
      "start": 1416,
      "ible": 1417,
      "meet": 1418,
      "answered": 1419,
      "road": 1420,
      "bear": 1421,
      "lady": 1422,
      "covered": 1423,
      "master": 1424,
      "short": 1425,
      "boy": 1426,
      "held": 1427,
      "tion": 1428,
      "children": 1429,
      "town": 1430,
      "cious": 1431,
      "hur": 1432,
      "plo": 1433,
      "diff": 1434,
      "lat": 1435,
      "bey": 1436,
      "Let": 1437,
      "subject": 1438,
      "cord": 1439,
      "adm": 1440,
      "coll": 1441,
      "view": 1442,
      "above": 1443,
      "whether": 1444,
      "six": 1445,
      "Will": 1446,
      "particul": 1447,
      "Hol": 1448,
      "stri": 1449,
      "lin": 1450,
      "leg": 1451,
      "utter": 1452,
      "fac": 1453,
      ".’": 1454,
      "thin": 1455,
      "mist": 1456,
      "ford": 1457,
      "usu": 1458,
      "obser": 1459,
      "until": 1460,
      "paper": 1461,
      "Mo": 1462,
      "table": 1463,
      "bly": 1464,
      "RE": 1465,
      "allow": 1466,
      "tt": 1467,
      "supp": 1468,
      "family": 1469,
      "pat": 1470,
      "outh": 1471,
      "iment": 1472,
      "pra": 1473,
      "flo": 1474,
      "roy": 1475,
      "Sir": 1476,
      "making": 1477,
      "human": 1478,
      "draw": 1479,
      "sed": 1480,
      "lost": 1481,
      "mid": 1482,
      "cks": 1483,
      "perfect": 1484,
      "bur": 1485,
      "forth": 1486,
      "consider": 1487,
      "business": 1488,
      "sight": 1489,
      "position": 1490,
      "spr": 1491,
      "soul": 1492,
      "chief": 1493,
      "ending": 1494,
      "Arch": 1495,
      "blood": 1496,
      "tempt": 1497,
      "Art": 1498,
      "ga": 1499,
      "bring": 1500,
      "ching": 1501,
      "thor": 1502,
      "itted": 1503,
      "eye": 1504,
      "Ex": 1505,
      "field": 1506,
      "hus": 1507,
      "One": 1508,
      "close": 1509,
      "everything": 1510,
      "strange": 1511,
      "Book": 1512,
      "foot": 1513,
      "spoke": 1514,
      "ular": 1515,
      "wild": 1516,
      "object": 1517,
      "returned": 1518,
      "fur": 1519,
      "bon": 1520,
      "ann": 1521,
      "Holmes": 1522,
      "ese": 1523,
      "ats": 1524,
      "thous": 1525,
      "ww": 1526,
      "Not": 1527,
      "immedi": 1528,
      "iles": 1529,
      "sleep": 1530,
      "00": 1531,
      "idea": 1532,
      "ific": 1533,
      "knowled": 1534,
      "By": 1535,
      "CHAP": 1536,
      "cell": 1537,
      "difficul": 1538,
      "mur": 1539,
      "girl": 1540,
      "aint": 1541,
      "answer": 1542,
      "jud": 1543,
      "satis": 1544,
      "begin": 1545,
      "dec": 1546,
      "Here": 1547,
      "ards": 1548,
      "CHAPTER": 1549,
      "wise": 1550,
      "ention": 1551,
      "ils": 1552,
      "vel": 1553,
      "sim": 1554,
      "comfort": 1555,
      "itself": 1556,
      "instant": 1557,
      "thousand": 1558,
      "pen": 1559,
      "proper": 1560,
      "bert": 1561,
      "ier": 1562,
      "bad": 1563,
      "hn": 1564,
      "riage": 1565,
      "ney": 1566,
      "ours": 1567,
      "Pr": 1568,
      "ught": 1569,
      "qual": 1570,
      "talk": 1571,
      "Mor": 1572,
      "gro": 1573,
      "mad": 1574,
      "pet": 1575,
      "bri": 1576,
      "particular": 1577,
      "past": 1578,
      "surpr": 1579,
      "dep": 1580,
      "change": 1581,
      "da": 1582,
      "cold": 1583,
      "Cap": 1584,
      "ution": 1585,
      "ths": 1586,
      "arch": 1587,
      "inf": 1588,
      "quiet": 1589,
      "copyright": 1590,
      "longer": 1591,
      "Some": 1592,
      "illed": 1593,
      "quick": 1594,
      "ES": 1595,
      "line": 1596,
      "ger": 1597,
      "mus": 1598,
      "occas": 1599,
      "anim": 1600,
      "utes": 1601,
      "respect": 1602,
      "OF": 1603,
      "Con": 1604,
      "tou": 1605,
      "plan": 1606,
      "husband": 1607,
      "ake": 1608,
      "ously": 1609,
      "opin": 1610,
      "wenty": 1611,
      "charac": 1612,
      "Who": 1613,
      "ouble": 1614,
      "kept": 1615,
      "poss": 1616,
      "move": 1617,
      "number": 1618,
      "bow": 1619,
      "cul": 1620,
      "heaven": 1621,
      "lad": 1622,
      "pie": 1623,
      "rice": 1624,
      "wee": 1625,
      "stay": 1626,
      "din": 1627,
      "received": 1628,
      "continued": 1629,
      "rage": 1630,
      "itting": 1631,
      "ux": 1632,
      "mere": 1633,
      "Le": 1634,
      "Val": 1635,
      "aking": 1636,
      "ative": 1637,
      "ror": 1638,
      "possess": 1639,
      "rup": 1640,
      "cing": 1641,
      "lly": 1642,
      "lui": 1643,
      "itude": 1644,
      "Re": 1645,
      "truth": 1646,
      "Dor": 1647,
      "tro": 1648,
      "tom": 1649,
      "ah": 1650,
      "agreement": 1651,
      "cum": 1652,
      "mine": 1653,
      "became": 1654,
      "ublic": 1655,
      ",’": 1656,
      "gate": 1657,
      "acqu": 1658,
      "agnan": 1659,
      "ille": 1660,
      "several": 1661,
      "eBook": 1662,
      "sense": 1663,
      "ingly": 1664,
      "Artagnan": 1665,
      "exam": 1666,
      "common": 1667,
      "saying": 1668,
      "break": 1669,
      "horse": 1670,
      "ring": 1671,
      "pleasure": 1672,
      "fine": 1673,
      "regard": 1674,
      "sister": 1675,
      "States": 1676,
      "lim": 1677,
      "twenty": 1678,
      "tern": 1679,
      "gar": 1680,
      "cup": 1681,
      "except": 1682,
      "exc": 1683,
      "evid": 1684,
      "Ed": 1685,
      "dress": 1686,
      "comple": 1687,
      "feeling": 1688,
      "Lord": 1689,
      "iful": 1690,
      "fig": 1691,
      "says": 1692,
      "account": 1693,
      "augh": 1694,
      "John": 1695,
      "pour": 1696,
      "suf": 1697,
      "TI": 1698,
      "za": 1699,
      "deal": 1700,
      "ceive": 1701,
      "sem": 1702,
      "secret": 1703,
      "seem": 1704,
      "rible": 1705,
      "suddenly": 1706,
      "comes": 1707,
      "lea": 1708,
      "suppose": 1709,
      "Tom": 1710,
      "dem": 1711,
      "Per": 1712,
      "minutes": 1713,
      "ès": 1714,
      "yourself": 1715,
      "collect": 1716,
      "stre": 1717,
      "general": 1718,
      "cry": 1719,
      "prob": 1720,
      "lying": 1721,
      "lice": 1722,
      "dr": 1723,
      "Me": 1724,
      "gentleman": 1725,
      "post": 1726,
      "uck": 1727,
      "hours": 1728,
      "hall": 1729,
      "alth": 1730,
      "org": 1731,
      "worth": 1732,
      "spect": 1733,
      "fut": 1734,
      "Com": 1735,
      "mp": 1736,
      "god": 1737,
      "grow": 1738,
      "sult": 1739,
      "Ah": 1740,
      ",\"": 1741,
      "gold": 1742,
      "lead": 1743,
      "danger": 1744,
      "Par": 1745,
      "yes": 1746,
      "hair": 1747,
      "trade": 1748,
      "ago": 1749,
      "grand": 1750,
      "suffer": 1751,
      "cra": 1752,
      "ided": 1753,
      "effect": 1754,
      "sometimes": 1755,
      "enter": 1756,
      "daugh": 1757,
      "vous": 1758,
      "fav": 1759,
      "Nor": 1760,
      "pu": 1761,
      "inv": 1762,
      "lies": 1763,
      "produ": 1764,
      "rose": 1765,
      "pon": 1766,
      "sequ": 1767,
      "bs": 1768,
      "gain": 1769,
      "tory": 1770,
      "tend": 1771,
      "itation": 1772,
      "aret": 1773,
      "flow": 1774,
      "taking": 1775,
      "character": 1776,
      "bound": 1777,
      "across": 1778,
      "chair": 1779,
      "knowledge": 1780,
      "lled": 1781,
      "wel": 1782,
      "smo": 1783,
      "ames": 1784,
      "opened": 1785,
      "ination": 1786,
      "United": 1787,
      "aring": 1788,
      "Af": 1789,
      "xed": 1790,
      "Don": 1791,
      "hardly": 1792,
      "Car": 1793,
      "aren": 1794,
      "public": 1795,
      "stud": 1796,
      "occasion": 1797,
      "different": 1798,
      "entered": 1799,
      "dream": 1800,
      "resol": 1801,
      "urch": 1802,
      "aged": 1803,
      "obli": 1804,
      "import": 1805,
      "necessary": 1806,
      "pal": 1807,
      "followed": 1808,
      "Captain": 1809,
      "shad": 1810,
      "iling": 1811,
      "trans": 1812,
      "glad": 1813,
      "garet": 1814,
      "gy": 1815,
      "rie": 1816,
      "Mary": 1817,
      "har": 1818,
      "around": 1819,
      "ult": 1820,
      "cast": 1821,
      "inci": 1822,
      "become": 1823,
      "certainly": 1824,
      "ying": 1825,
      "wanted": 1826,
      "gard": 1827,
      "ized": 1828,
      "thos": 1829,
      "ushed": 1830,
      "formed": 1831,
      "delight": 1832,
      "liar": 1833,
      "Bar": 1834,
      "usual": 1835,
      "scar": 1836,
      "late": 1837,
      "women": 1838,
      "island": 1839,
      "trem": 1840,
      "sett": 1841,
      "Mad": 1842,
      "Come": 1843,
      "ences": 1844,
      "mission": 1845,
      "leng": 1846,
      "elle": 1847,
      "concer": 1848,
      "jour": 1849,
      "natural": 1850,
      "AL": 1851,
      "ory": 1852,
      "Lo": 1853,
      "),": 1854,
      "iting": 1855,
      "slow": 1856,
      "motion": 1857,
      "mouth": 1858,
      "laws": 1859,
      "quar": 1860,
      "fee": 1861,
      "opinion": 1862,
      "pected": 1863,
      "doing": 1864,
      "exp": 1865,
      "ug": 1866,
      "After": 1867,
      "street": 1868,
      "anx": 1869,
      "ries": 1870,
      "hum": 1871,
      "rist": 1872,
      "during": 1873,
      "esse": 1874,
      "LE": 1875,
      "ging": 1876,
      "moved": 1877,
      "pol": 1878,
      "seeing": 1879,
      "formation": 1880,
      "rank": 1881,
      "tained": 1882,
      "Ly": 1883,
      "éta": 1884,
      "anged": 1885,
      "Where": 1886,
      "inal": 1887,
      "pretty": 1888,
      "dog": 1889,
      "Margaret": 1890,
      "clock": 1891,
      "inary": 1892,
      "stren": 1893,
      "prote": 1894,
      "ée": 1895,
      "ham": 1896,
      "From": 1897,
      "trees": 1898,
      "dread": 1899,
      "por": 1900,
      "curi": 1901,
      "safe": 1902,
      ".'": 1903,
      "ley": 1904,
      "ience": 1905,
      "deter": 1906,
      "circum": 1907,
      "sage": 1908,
      "nearly": 1909,
      "forward": 1910,
      "offic": 1911,
      "fron": 1912,
      "ges": 1913,
      "iterary": 1914,
      "ctions": 1915,
      "fle": 1916,
      "carry": 1917,
      "ale": 1918,
      "fool": 1919,
      "stro": 1920,
      "added": 1921,
      "streng": 1922,
      "sweet": 1923,
      "entire": 1924,
      "Fab": 1925,
      "RO": 1926,
      "silence": 1927,
      "ade": 1928,
      "dle": 1929,
      "tried": 1930,
      "quire": 1931,
      "cat": 1932,
      "raid": 1933,
      "includ": 1934,
      "itten": 1935,
      "none": 1936,
      "dans": 1937,
      "ager": 1938,
      "prison": 1939,
      "ones": 1940,
      "bell": 1941,
      "immediately": 1942,
      "SE": 1943,
      "neither": 1944,
      "effort": 1945,
      "Or": 1946,
      "drew": 1947,
      "force": 1948,
      "ici": 1949,
      "parag": 1950,
      "youth": 1951,
      "approach": 1952,
      "length": 1953,
      "angu": 1954,
      "crow": 1955,
      "These": 1956,
      "pes": 1957,
      "seems": 1958,
      "sie": 1959,
      "big": 1960,
      "moun": 1961,
      "convers": 1962,
      "lord": 1963,
      "King": 1964,
      "ré": 1965,
      "sail": 1966,
      "“‘": 1967,
      "intell": 1968,
      "emplo": 1969,
      "var": 1970,
      "ler": 1971,
      "chance": 1972,
      "expect": 1973,
      "IS": 1974,
      "English": 1975,
      "amp": 1976,
      "descri": 1977,
      "access": 1978,
      "charge": 1979,
      "suff": 1980,
      "fight": 1981,
      "fif": 1982,
      "paid": 1983,
      "fat": 1984,
      "urg": 1985,
      "standing": 1986,
      "company": 1987,
      "paragra": 1988,
      "exist": 1989,
      "beautiful": 1990,
      "fortune": 1991,
      "lab": 1992,
      "rich": 1993,
      "ining": 1994,
      "glass": 1995,
      "paragraph": 1996,
      "afraid": 1997,
      "command": 1998,
      "expected": 1999,
      "cross": 2000,
      "pair": 2001,
      "ctly": 2002,
      "gover": 2003,
      "hy": 2004,
      "anci": 2005,
      "itions": 2006,
      "city": 2007,
      "accord": 2008,
      "distance": 2009,
      "sold": 2010,
      "spirit": 2011,
      "proceed": 2012,
      "attention": 2013,
      "contr": 2014,
      "OU": 2015,
      "beyond": 2016,
      "warm": 2017,
      "thoughts": 2018,
      "Lu": 2019,
      "van": 2020,
      "rap": 2021,
      "getting": 2022,
      "following": 2023,
      "die": 2024,
      "smile": 2025,
      "—”": 2026,
      "mort": 2027,
      "affe": 2028,
      "Law": 2029,
      "bi": 2030,
      "bor": 2031,
      "fu": 2032,
      "accept": 2033,
      "walk": 2034,
      "habit": 2035,
      "sal": 2036,
      "meant": 2037,
      "ild": 2038,
      "quired": 2039,
      "const": 2040,
      "cost": 2041,
      "Good": 2042,
      "repe": 2043,
      "neigh": 2044,
      "Christ": 2045,
      "daughter": 2046,
      "lips": 2047,
      "usion": 2048,
      "wrong": 2049,
      "carried": 2050,
      "walked": 2051,
      "Adam": 2052,
      "thinking": 2053,
      "moon": 2054,
      "purpose": 2055,
      "fra": 2056,
      "Fo": 2057,
      "cre": 2058,
      "Peter": 2059,
      "slight": 2060,
      "living": 2061,
      "pray": 2062,
      "Literary": 2063,
      "eat": 2064,
      "shadow": 2065,
      "hung": 2066,
      "party": 2067,
      "Fabrice": 2068,
      "Col": 2069,
      "stair": 2070,
      "pit": 2071,
      "viol": 2072,
      "success": 2073,
      "fortun": 2074,
      "ening": 2075,
      "deli": 2076,
      "early": 2077,
      "nar": 2078,
      "circumst": 2079,
      "wit": 2080,
      "dev": 2081,
      "Doro": 2082,
      "Dr": 2083,
      "!—": 2084,
      "mach": 2085,
      "firm": 2086,
      "Archive": 2087,
      "trademark": 2088,
      "del": 2089,
      "placed": 2090,
      "vir": 2091,
      "Li": 2092,
      "ature": 2093,
      "visit": 2094,
      "strength": 2095,
      ".—": 2096,
      "ping": 2097,
      "easy": 2098,
      "box": 2099,
      "happened": 2100,
      "avy": 2101,
      "Pen": 2102,
      "hast": 2103,
      "Lon": 2104,
      "trouble": 2105,
      "board": 2106,
      "top": 2107,
      "London": 2108,
      "loved": 2109,
      "story": 2110,
      "fied": 2111,
      "justice": 2112,
      "ually": 2113,
      "exact": 2114,
      "stone": 2115,
      "written": 2116,
      "hill": 2117,
      "remained": 2118,
      "Qu": 2119,
      "excell": 2120,
      "pleasant": 2121,
      "scho": 2122,
      "anced": 2123,
      "eight": 2124,
      "shore": 2125,
      "laid": 2126,
      "trust": 2127,
      "ends": 2128,
      "sole": 2129,
      "pract": 2130,
      "def": 2131,
      "consequ": 2132,
      "ices": 2133,
      "green": 2134,
      "bled": 2135,
      "address": 2136,
      "fing": 2137,
      "ext": 2138,
      "appearance": 2139,
      "LA": 2140,
      "hat": 2141,
      "mention": 2142,
      "mal": 2143,
      "struck": 2144,
      "Ho": 2145,
      "conscious": 2146,
      "miles": 2147,
      "ming": 2148,
      "impossible": 2149,
      "sla": 2150,
      "Cha": 2151,
      "bright": 2152,
      "fright": 2153,
      "prov": 2154,
      "boat": 2155,
      "reached": 2156,
      "dut": 2157,
      "zz": 2158,
      "Mil": 2159,
      "fit": 2160,
      "ents": 2161,
      "tone": 2162,
      "using": 2163,
      "pict": 2164,
      "further": 2165,
      "yr": 2166,
      "heavy": 2167,
      "ified": 2168,
      "bling": 2169,
      "La": 2170,
      "lan": 2171,
      "itor": 2172,
      "ased": 2173,
      "indi": 2174,
      "provid": 2175,
      "watch": 2176,
      "dom": 2177,
      "front": 2178,
      "nest": 2179,
      "était": 2180,
      "burn": 2181,
      "makes": 2182,
      "risto": 2183,
      "donations": 2184,
      "refle": 2185,
      "cred": 2186,
      "VI": 2187,
      "whis": 2188,
      "Ind": 2189,
      "Em": 2190,
      "easily": 2191,
      "peci": 2192,
      "uc": 2193,
      "thir": 2194,
      "attempt": 2195,
      "princi": 2196,
      "New": 2197,
      "Madame": 2198,
      "lived": 2199,
      "observed": 2200,
      "guard": 2201,
      "garden": 2202,
      "tout": 2203,
      "captain": 2204,
      "evil": 2205,
      "avait": 2206,
      "zed": 2207,
      "pale": 2208,
      "AS": 2209,
      "avo": 2210,
      "sw": 2211,
      "poc": 2212,
      "faith": 2213,
      "morrow": 2214,
      "complete": 2215,
      "iv": 2216,
      "although": 2217,
      "unity": 2218,
      "deser": 2219,
      "beginning": 2220,
      "future": 2221,
      "lling": 2222,
      "CT": 2223,
      "hath": 2224,
      "sit": 2225,
      "rend": 2226,
      "ount": 2227,
      "please": 2228,
      "ordinary": 2229,
      "stopped": 2230,
      "XX": 2231,
      "desire": 2232,
      "conversation": 2233,
      "ray": 2234,
      "sieur": 2235,
      "cott": 2236,
      "occup": 2237,
      "ai": 2238,
      "broken": 2239,
      "dinner": 2240,
      "ball": 2241,
      "determin": 2242,
      "forgot": 2243,
      "sad": 2244,
      "school": 2245,
      "below": 2246,
      "AG": 2247,
      "Your": 2248,
      "didn": 2249,
      "serious": 2250,
      "support": 2251,
      "wound": 2252,
      "Ju": 2253,
      "glo": 2254,
      "speaking": 2255,
      "Cristo": 2256,
      "occur": 2257,
      "rench": 2258,
      "fresh": 2259,
      "experi": 2260,
      "courage": 2261,
      "CE": 2262,
      "atever": 2263,
      "prep": 2264,
      "Ben": 2265,
      "lia": 2266,
      "former": 2267,
      "weak": 2268,
      "attle": 2269,
      "pointed": 2270,
      "temper": 2271,
      "Monte": 2272,
      "breath": 2273,
      "grave": 2274,
      "terrible": 2275,
      "thes": 2276,
      "knows": 2277,
      "marked": 2278,
      "affair": 2279,
      "preh": 2280,
      "rent": 2281,
      "advant": 2282,
      "Hen": 2283,
      "bird": 2284,
      "oured": 2285,
      "aded": 2286,
      "aston": 2287,
      "turning": 2288,
      "lli": 2289,
      "maid": 2290,
      "minute": 2291,
      "croft": 2292,
      "**": 2293,
      "wished": 2294,
      "ina": 2295,
      "blue": 2296,
      "employ": 2297,
      "expression": 2298,
      "cher": 2299,
      "week": 2300,
      "SI": 2301,
      "claimed": 2302,
      "test": 2303,
      "feelings": 2304,
      "acc": 2305,
      "Can": 2306,
      "demand": 2307,
      "pter": 2308,
      "hood": 2309,
      "ties": 2310,
      "gen": 2311,
      "tree": 2312,
      "associ": 2313,
      "rance": 2314,
      "sin": 2315,
      "thick": 2316,
      "giving": 2317,
      "urgis": 2318,
      "Jurgis": 2319,
      "seven": 2320,
      "grew": 2321,
      "memor": 2322,
      "iron": 2323,
      "opport": 2324,
      "married": 2325,
      "18": 2326,
      "ende": 2327,
      "decl": 2328,
      "extra": 2329,
      "dim": 2330,
      "steps": 2331,
      "susp": 2332,
      "Gree": 2333,
      "eth": 2334,
      "reco": 2335,
      "beth": 2336,
      "ED": 2337,
      "Ville": 2338,
      "ech": 2339,
      "orig": 2340,
      "entirely": 2341,
      "condu": 2342,
      "greater": 2343,
      "ded": 2344,
      "plus": 2345,
      "silent": 2346,
      "assu": 2347,
      "especi": 2348,
      "ishment": 2349,
      "sugg": 2350,
      "Every": 2351,
      "cape": 2352,
      "anny": 2353,
      "ead": 2354,
      "horses": 2355,
      "cab": 2356,
      "enjoy": 2357,
      "Villefort": 2358,
      "event": 2359,
      "ively": 2360,
      "throw": 2361,
      "instead": 2362,
      "simple": 2363,
      "Lady": 2364,
      "perfectly": 2365,
      "piece": 2366,
      "figure": 2367,
      "situ": 2368,
      "tired": 2369,
      "fla": 2370,
      "treat": 2371,
      "suggest": 2372,
      "remark": 2373,
      "noon": 2374,
      "alter": 2375,
      "learn": 2376,
      "Fanny": 2377,
      "soft": 2378,
      "save": 2379,
      "Pencroft": 2380,
      "notice": 2381,
      "meric": 2382,
      "enemy": 2383,
      "rate": 2384,
      "caught": 2385,
      "US": 2386,
      "kill": 2387,
      "rant": 2388,
      "conce": 2389,
      "happiness": 2390,
      "scarce": 2391,
      "likely": 2392,
      "ben": 2393,
      "inct": 2394,
      "dé": 2395,
      "pping": 2396,
      "river": 2397,
      "blow": 2398,
      "presence": 2399,
      "pers": 2400,
      "carriage": 2401,
      "closed": 2402,
      "simp": 2403,
      "net": 2404,
      "poet": 2405,
      "pursu": 2406,
      "passion": 2407,
      "host": 2408,
      "sitting": 2409,
      "third": 2410,
      "author": 2411,
      "sorrow": 2412,
      "pressed": 2413,
      "ère": 2414,
      "tears": 2415,
      "Americ": 2416,
      "vain": 2417,
      "uni": 2418,
      "spring": 2419,
      "beauty": 2420,
      "ians": 2421,
      "ines": 2422,
      "Tho": 2423,
      "som": 2424,
      "prince": 2425,
      "dare": 2426,
      "admir": 2427,
      "bene": 2428,
      "pun": 2429,
      "forget": 2430,
      "lot": 2431,
      "Thus": 2432,
      "wine": 2433,
      "shut": 2434,
      "prevent": 2435,
      "desc": 2436,
      "anyone": 2437,
      "AND": 2438,
      "note": 2439,
      "kne": 2440,
      "itable": 2441,
      "mond": 2442,
      "months": 2443,
      "arent": 2444,
      "Cas": 2445,
      "cloud": 2446,
      "May": 2447,
      "bid": 2448,
      "race": 2449,
      "www": 2450,
      "key": 2451,
      "ury": 2452,
      "ama": 2453,
      "individ": 2454,
      "understood": 2455,
      "Valancy": 2456,
      "filled": 2457,
      "rock": 2458,
      "Lic": 2459,
      "compl": 2460,
      "calm": 2461,
      "England": 2462,
      "gutenberg": 2463,
      "news": 2464,
      "build": 2465,
      "card": 2466,
      "surprise": 2467,
      "solute": 2468,
      "slowly": 2469,
      "sl": 2470,
      "prove": 2471,
      "books": 2472,
      "License": 2473,
      "pond": 2474,
      "conv": 2475,
      "floor": 2476,
      "teen": 2477,
      "assist": 2478,
      "aster": 2479,
      "shar": 2480,
      "talking": 2481,
      "especially": 2482,
      "twi": 2483,
      "raised": 2484,
      "writing": 2485,
      "train": 2486,
      "ignor": 2487,
      "priv": 2488,
      "Lyd": 2489,
      "?\"": 2490,
      "rain": 2491,
      "lean": 2492,
      "eager": 2493,
      "jest": 2494,
      "threw": 2495,
      "afterwards": 2496,
      "sens": 2497,
      ".]": 2498,
      "AM": 2499,
      "Yet": 2500,
      "send": 2501,
      "wed": 2502,
      "bank": 2503,
      "ists": 2504,
      "ference": 2505,
      "Lydgate": 2506,
      "log": 2507,
      "Sun": 2508,
      "fash": 2509,
      "ich": 2510,
      "thro": 2511,
      "toward": 2512,
      "hid": 2513,
      "sen": 2514,
      "Hard": 2515,
      "ically": 2516,
      "individual": 2517,
      "hero": 2518,
      "straight": 2519,
      "aff": 2520,
      "rapid": 2521,
      "corner": 2522,
      "ix": 2523,
      "squ": 2524,
      "grace": 2525,
      "ired": 2526,
      "ability": 2527,
      "ital": 2528,
      "marry": 2529,
      "honour": 2530,
      "grat": 2531,
      "lift": 2532,
      "whatever": 2533,
      "III": 2534,
      "waiting": 2535,
      "obliged": 2536,
      "TO": 2537,
      "stairs": 2538,
      "anxious": 2539,
      "sì": 2540,
      "meas": 2541,
      "quel": 2542,
      "creature": 2543,
      "empt": 2544,
      "peace": 2545,
      "doctor": 2546,
      "ding": 2547,
      "fancy": 2548,
      "latter": 2549,
      "mn": 2550,
      "exclaimed": 2551,
      "cience": 2552,
      "spot": 2553,
      "swi": 2554,
      "eness": 2555,
      "concl": 2556,
      "vessel": 2557,
      "depart": 2558,
      "outside": 2559,
      "bless": 2560,
      "langu": 2561,
      "service": 2562,
      "influ": 2563,
      "relie": 2564,
      "discovered": 2565,
      "shot": 2566,
      "companion": 2567,
      "phe": 2568,
      "leaving": 2569,
      "furn": 2570,
      "ners": 2571,
      "gentlemen": 2572,
      "later": 2573,
      "gri": 2574,
      "French": 2575,
      "gle": 2576,
      "Wat": 2577,
      "sav": 2578,
      "drink": 2579,
      "UT": 2580,
      "idence": 2581,
      "loso": 2582,
      "Athos": 2583,
      "Mother": 2584,
      "absolute": 2585,
      "died": 2586,
      "single": 2587,
      "instru": 2588,
      "thea": 2589,
      "ics": 2590,
      "fixed": 2591,
      "iced": 2592,
      "taining": 2593,
      "Henry": 2594,
      "Dorothea": 2595,
      "LL": 2596,
      "iety": 2597,
      "Sa": 2598,
      "ising": 2599,
      "places": 2600,
      "path": 2601,
      "retched": 2602,
      "cet": 2603,
      "essor": 2604,
      "ears": 2605,
      "content": 2606,
      "duty": 2607,
      "mir": 2608,
      "ration": 2609,
      "probably": 2610,
      "display": 2611,
      "merely": 2612,
      "fashion": 2613,
      "sick": 2614,
      "Fran": 2615,
      "thod": 2616,
      "pleased": 2617,
      "Eli": 2618,
      "sli": 2619,
      "parts": 2620,
      "whisper": 2621,
      "ency": 2622,
      "noble": 2623,
      "neck": 2624,
      "showed": 2625,
      "drawing": 2626,
      "tender": 2627,
      "affection": 2628,
      "Kim": 2629,
      "mit": 2630,
      "belong": 2631,
      "sharp": 2632,
      "project": 2633,
      "forest": 2634,
      "dit": 2635,
      "result": 2636,
      "ilt": 2637,
      "music": 2638,
      "cheer": 2639,
      "recogn": 2640,
      "rough": 2641,
      "exer": 2642,
      "reed": 2643,
      "pread": 2644,
      "mag": 2645,
      "ny": 2646,
      "scene": 2647,
      "court": 2648,
      "sorry": 2649,
      "conne": 2650,
      "dy": 2651,
      "loc": 2652,
      "companions": 2653,
      "difficulty": 2654,
      "journey": 2655,
      "Did": 2656,
      "lars": 2657,
      "bour": 2658,
      "succeed": 2659,
      "unless": 2660,
      "boys": 2661,
      "trave": 2662,
      ",'": 2663,
      "ral": 2664,
      "food": 2665,
      "ousin": 2666,
      "avec": 2667,
      "Dang": 2668,
      "period": 2669,
      "sses": 2670,
      "drawn": 2671,
      "spl": 2672,
      "Danglars": 2673,
      "pull": 2674,
      "tax": 2675,
      "murder": 2676,
      "bility": 2677,
      "raw": 2678,
      "police": 2679,
      "....": 2680,
      "sym": 2681,
      "ST": 2682,
      "bas": 2683,
      "born": 2684,
      "visible": 2685,
      "Chapter": 2686,
      "super": 2687,
      "search": 2688,
      "phi": 2689,
      "engine": 2690,
      "antly": 2691,
      "See": 2692,
      "pocket": 2693,
      "Eliza": 2694,
      "Just": 2695,
      "hes": 2696,
      "mill": 2697,
      "onel": 2698,
      "worse": 2699,
      "vic": 2700,
      "Br": 2701,
      "advantage": 2702,
      "uff": 2703,
      "including": 2704,
      "passage": 2705,
      "lock": 2706,
      "Never": 2707,
      "fond": 2708,
      "James": 2709,
      "edge": 2710,
      "thank": 2711,
      "trying": 2712,
      "spoken": 2713,
      "destroy": 2714,
      "ony": 2715,
      "lives": 2716,
      "lig": 2717,
      "culiar": 2718,
      "Emma": 2719,
      "darkness": 2720,
      "Mer": 2721,
      "While": 2722,
      "portion": 2723,
      "important": 2724,
      "wealth": 2725,
      "determined": 2726,
      "bal": 2727,
      "gun": 2728,
      "marriage": 2729,
      "talked": 2730,
      "clothes": 2731,
      "circumstances": 2732,
      "fami": 2733,
      "arrived": 2734,
      "wide": 2735,
      "sible": 2736,
      "seas": 2737,
      "information": 2738,
      "coat": 2739,
      "Paris": 2740,
      "conceal": 2741,
      "peculiar": 2742,
      "exactly": 2743,
      "Jane": 2744,
      "thrown": 2745,
      "apart": 2746,
      "ples": 2747,
      "servant": 2748,
      "confess": 2749,
      "scarcely": 2750,
      "Harding": 2751,
      "escape": 2752,
      "quir": 2753,
      "spite": 2754,
      "div": 2755,
      "Very": 2756,
      "liber": 2757,
      "Perhaps": 2758,
      "ker": 2759,
      "provide": 2760,
      "loud": 2761,
      "meaning": 2762,
      "require": 2763,
      "changed": 2764,
      "report": 2765,
      "However": 2766,
      "quickly": 2767,
      "Their": 2768,
      "bitter": 2769,
      "Our": 2770,
      "fun": 2771,
      "bot": 2772,
      "Albert": 2773,
      "Have": 2774,
      "counten": 2775,
      "ns": 2776,
      "zen": 2777,
      "reck": 2778,
      "atta": 2779,
      "broke": 2780,
      "direction": 2781,
      "greatest": 2782,
      "tains": 2783,
      "sky": 2784,
      "Prof": 2785,
      "West": 2786,
      "stream": 2787,
      "impress": 2788,
      "middle": 2789,
      "Elizabeth": 2790,
      "ishing": 2791,
      "ator": 2792,
      "letters": 2793,
      "shook": 2794,
      "opportunity": 2795,
      "erous": 2796,
      "sake": 2797,
      "running": 2798,
      "promise": 2799,
      "vision": 2800,
      "ban": 2801,
      "excellent": 2802,
      "isto": 2803,
      "Har": 2804,
      "thed": 2805,
      "imagine": 2806,
      "started": 2807,
      "satisfied": 2808,
      "House": 2809,
      "aud": 2810,
      "ism": 2811,
      "spirits": 2812,
      "stranger": 2813,
      "burst": 2814,
      "snow": 2815,
      "receive": 2816,
      "aste": 2817,
      "verse": 2818,
      "speech": 2819,
      "pir": 2820,
      "nel": 2821,
      "wear": 2822,
      "Man": 2823,
      "----": 2824,
      "State": 2825,
      "cise": 2826,
      "hang": 2827,
      "lose": 2828,
      "worthy": 2829,
      "write": 2830,
      "condition": 2831,
      "ladies": 2832,
      "acquaint": 2833,
      "fro": 2834,
      "sn": 2835,
      "educ": 2836,
      "church": 2837,
      "frequ": 2838,
      "keeping": 2839,
      "reading": 2840,
      "action": 2841,
      "collection": 2842,
      "philoso": 2843,
      "Such": 2844,
      "ING": 2845,
      "Are": 2846,
      "Wo": 2847,
      "class": 2848,
      "voy": 2849,
      "commun": 2850,
      "fallen": 2851,
      ".)": 2852,
      "pher": 2853,
      "pound": 2854,
      "tall": 2855,
      "ague": 2856,
      "ava": 2857,
      "tin": 2858,
      "deg": 2859,
      "extre": 2860,
      "?—": 2861,
      "ues": 2862,
      "erable": 2863,
      "chamber": 2864,
      "uttered": 2865,
      "Sect": 2866,
      "etty": 2867,
      "ouses": 2868,
      "agreeable": 2869,
      "proud": 2870,
      "Char": 2871,
      "...": 2872,
      "Carol": 2873,
      "repeated": 2874,
      "simply": 2875,
      "beat": 2876,
      "ize": 2877,
      "considered": 2878,
      "depend": 2879,
      "represent": 2880,
      "learned": 2881,
      "bing": 2882,
      "pity": 2883,
      "ville": 2884,
      "society": 2885,
      "rub": 2886,
      "Enter": 2887,
      "proved": 2888,
      "print": 2889,
      "looks": 2890,
      "shout": 2891,
      "permission": 2892,
      "phys": 2893,
      "range": 2894,
      "welve": 2895,
      "beneath": 2896,
      "charm": 2897,
      "offer": 2898,
      "refund": 2899,
      "Professor": 2900,
      "cro": 2901,
      "uel": 2902,
      "allowed": 2903,
      "lor": 2904,
      "pic": 2905,
      "tong": 2906,
      "fal": 2907,
      "isted": 2908,
      "ime": 2909,
      "Even": 2910,
      "teach": 2911,
      "office": 2912,
      "study": 2913,
      "govern": 2914,
      "deta": 2915,
      "hot": 2916,
      "believed": 2917,
      "breakfast": 2918,
      "aware": 2919,
      "associated": 2920,
      "RI": 2921,
      "lest": 2922,
      "gall": 2923,
      "pan": 2924,
      "tle": 2925,
      "woods": 2926,
      "rust": 2927,
      "ius": 2928,
      "ption": 2929,
      "Stre": 2930,
      "station": 2931,
      "ell": 2932,
      "asse": 2933,
      "separ": 2934,
      "sion": 2935,
      "broad": 2936,
      "laughed": 2937,
      "Bro": 2938,
      "farm": 2939,
      "liked": 2940,
      "situation": 2941,
      "advent": 2942,
      "polit": 2943,
      "icient": 2944,
      "fold": 2945,
      "ingu": 2946,
      "besides": 2947,
      "uncle": 2948,
      "itated": 2949,
      "devil": 2950,
      "ancing": 2951,
      "knowing": 2952,
      "private": 2953,
      "beast": 2954,
      "earnest": 2955,
      "chee": 2956,
      "favour": 2957,
      "Ab": 2958,
      "due": 2959,
      "houses": 2960,
      "né": 2961,
      "—“": 2962,
      "ables": 2963,
      "kiss": 2964,
      "rul": 2965,
      "equal": 2966,
      "ourselves": 2967,
      "intellig": 2968,
      "touch": 2969,
      "Was": 2970,
      "mass": 2971,
      "ax": 2972,
      "Ber": 2973,
      "TY": 2974,
      "ba": 2975,
      "brow": 2976,
      "wis": 2977,
      "ises": 2978,
      "stop": 2979,
      "itch": 2980,
      "shop": 2981,
      "village": 2982,
      "experience": 2983,
      "dust": 2984,
      "».": 2985,
      "rope": 2986,
      "shoulder": 2987,
      "decided": 2988,
      "grass": 2989,
      "countenance": 2990,
      "acy": 2991,
      "sigh": 2992,
      "speed": 2993,
      "extreme": 2994,
      "walls": 2995,
      "spread": 2996,
      "quis": 2997,
      "distingu": 2998,
      "Morrel": 2999,
      "gods": 3000,
      "phr": 3001,
      "twelve": 3002,
      "cand": 3003,
      "passing": 3004,
      "difficult": 3005,
      "fol": 3006,
      "profess": 3007,
      "fifty": 3008,
      "asc": 3009,
      "vious": 3010,
      "animal": 3011,
      "honest": 3012,
      "faint": 3013,
      "noise": 3014,
      "velo": 3015,
      "rious": 3016,
      "ament": 3017,
      "equ": 3018,
      "indic": 3019,
      "attend": 3020,
      "blind": 3021,
      "rising": 3022,
      "seat": 3023,
      "abl": 3024,
      "bold": 3025,
      "copies": 3026,
      "walking": 3027,
      "forgotten": 3028,
      "Hetty": 3029,
      "pac": 3030,
      "share": 3031,
      "guess": 3032,
      "increas": 3033,
      "meeting": 3034,
      "settled": 3035,
      "influence": 3036,
      "rise": 3037,
      "overa": 3038,
      "persons": 3039,
      "method": 3040,
      "oppos": 3041,
      "crim": 3042,
      "Por": 3043,
      "Uly": 3044,
      "intro": 3045,
      "brave": 3046,
      "narrow": 3047,
      "Ulysses": 3048,
      "fate": 3049,
      "gged": 3050,
      "supposed": 3051,
      "legs": 3052,
      "engaged": 3053,
      "surprised": 3054,
      "!\"": 3055,
      "rad": 3056,
      "moder": 3057,
      "proof": 3058,
      "Sovera": 3059,
      "stor": 3060,
      "summer": 3061,
      "vey": 3062,
      "dreadful": 3063,
      "suspic": 3064,
      "EM": 3065,
      "tic": 3066,
      "ites": 3067,
      "chill": 3068,
      "conven": 3069,
      "amed": 3070,
      "apparent": 3071,
      "bread": 3072,
      "ease": 3073,
      "forced": 3074,
      "preser": 3075,
      "speci": 3076,
      "osity": 3077,
      "kno": 3078,
      "mme": 3079,
      "bottom": 3080,
      "battle": 3081,
      "duch": 3082,
      "pin": 3083,
      "vast": 3084,
      "altogether": 3085,
      "ify": 3086,
      "bran": 3087,
      "listened": 3088,
      "protected": 3089,
      "mortal": 3090,
      "degree": 3091,
      "gment": 3092,
      "nice": 3093,
      "Il": 3094,
      "persu": 3095,
      "introdu": 3096,
      "pence": 3097,
      "isters": 3098,
      "glance": 3099,
      "Street": 3100,
      "eper": 3101,
      "interrup": 3102,
      "directly": 3103,
      "sell": 3104,
      "thirty": 3105,
      "Cer": 3106,
      "zi": 3107,
      "inj": 3108,
      "teers": 3109,
      "afternoon": 3110,
      "Jove": 3111,
      "orders": 3112,
      "Jud": 3113,
      "kets": 3114,
      "occhi": 3115,
      "era": 3116,
      "recei": 3117,
      "heads": 3118,
      "luck": 3119,
      "regular": 3120,
      "evidently": 3121,
      "Dant": 3122,
      "stat": 3123,
      "bien": 3124,
      "goes": 3125,
      "treas": 3126,
      "girls": 3127,
      "ENT": 3128,
      "wonderful": 3129,
      "contrary": 3130,
      "accident": 3131,
      "communic": 3132,
      "Je": 3133,
      "ardon": 3134,
      "Dantès": 3135,
      "Ha": 3136,
      "Ph": 3137,
      "winter": 3138,
      "Monsieur": 3139,
      "distributing": 3140,
      "15": 3141,
      "terror": 3142,
      "yellow": 3143,
      "particularly": 3144,
      "killed": 3145,
      "opening": 3146,
      "Section": 3147,
      "mil": 3148,
      "urs": 3149,
      "Thorn": 3150,
      "located": 3151,
      "yards": 3152,
      "weather": 3153,
      "silver": 3154,
      "nine": 3155,
      "Colonel": 3156,
      "weight": 3157,
      "tact": 3158,
      "smiled": 3159,
      "questions": 3160,
      "beside": 3161,
      "custo": 3162,
      "Look": 3163,
      "memory": 3164,
      "distur": 3165,
      "Church": 3166,
      "dry": 3167,
      "hide": 3168,
      "sand": 3169,
      "onely": 3170,
      "angry": 3171,
      "Nothing": 3172,
      "remembered": 3173,
      "Ce": 3174,
      "tis": 3175,
      "false": 3176,
      "rat": 3177,
      "rush": 3178,
      "win": 3179,
      "check": 3180,
      "Thornton": 3181,
      "delic": 3182,
      "brea": 3183,
      "Herbert": 3184,
      "curious": 3185,
      "height": 3186,
      "tea": 3187,
      "eBooks": 3188,
      "Wood": 3189,
      "?’": 3190,
      "star": 3191,
      "els": 3192,
      "Count": 3193,
      "argu": 3194,
      "ric": 3195,
      "explan": 3196,
      "spent": 3197,
      "brid": 3198,
      "vict": 3199,
      "endeav": 3200,
      "arily": 3201,
      "health": 3202,
      "reply": 3203,
      "anted": 3204,
      "appears": 3205,
      "leaves": 3206,
      "acquaintance": 3207,
      "grad": 3208,
      "judge": 3209,
      "Meg": 3210,
      "Ad": 3211,
      "stir": 3212,
      "Archer": 3213,
      "Mic": 3214,
      "owed": 3215,
      "finite": 3216,
      "quarter": 3217,
      "fortunate": 3218,
      "Soveraign": 3219,
      "considerable": 3220,
      "property": 3221,
      "willing": 3222,
      "camp": 3223,
      "ior": 3224,
      "pride": 3225,
      "breast": 3226,
      "harm": 3227,
      "ower": 3228,
      "Milady": 3229,
      "arr": 3230,
      "possession": 3231,
      "AC": 3232,
      "Bon": 3233,
      "eld": 3234,
      "ump": 3235,
      "obey": 3236,
      "month": 3237,
      "farther": 3238,
      "terday": 3239,
      "NO": 3240,
      "cette": 3241,
      "picture": 3242,
      "Elin": 3243,
      "fier": 3244,
      "Elinor": 3245,
      "wand": 3246,
      "entine": 3247,
      "faction": 3248,
      "thered": 3249,
      "Bes": 3250,
      "fly": 3251,
      "rob": 3252,
      "windows": 3253,
      "sty": 3254,
      "Py": 3255,
      "bic": 3256,
      "discover": 3257,
      "waited": 3258,
      "language": 3259,
      "ND": 3260,
      "YOU": 3261,
      "dig": 3262,
      "stain": 3263,
      "Hel": 3264,
      "mater": 3265,
      "Au": 3266,
      "Cather": 3267,
      "Fe": 3268,
      "Hall": 3269,
      "hun": 3270,
      "rooms": 3271,
      "papers": 3272,
      "comfortable": 3273,
      "tow": 3274,
      "surface": 3275,
      "singular": 3276,
      "calcul": 3277,
      "according": 3278,
      "Catherine": 3279,
      "Gener": 3280,
      "shame": 3281,
      "observ": 3282,
      "produced": 3283,
      "occurred": 3284,
      "attered": 3285,
      "Had": 3286,
      "Mus": 3287,
      "Sy": 3288,
      "aunt": 3289,
      "tes": 3290,
      "freely": 3291,
      "hurt": 3292,
      "royal": 3293,
      "sufficient": 3294,
      "prepared": 3295,
      "PRO": 3296,
      "offered": 3297,
      "aken": 3298,
      "addition": 3299,
      "holding": 3300,
      "taste": 3301,
      "impat": 3302,
      "20": 3303,
      "sword": 3304,
      "thur": 3305,
      "ando": 3306,
      "ots": 3307,
      "flowers": 3308,
      "existence": 3309,
      "fill": 3310,
      "defect": 3311,
      "crowd": 3312,
      "song": 3313,
      "bull": 3314,
      "stick": 3315,
      "phy": 3316,
      "resolved": 3317,
      "duchesse": 3318,
      "servants": 3319,
      "listen": 3320,
      "fles": 3321,
      "perform": 3322,
      "clean": 3323,
      "Amy": 3324,
      "design": 3325,
      "watched": 3326,
      "engage": 3327,
      "difference": 3328,
      "conduct": 3329,
      "IV": 3330,
      "eds": 3331,
      "Fred": 3332,
      "agreed": 3333,
      "worn": 3334,
      "shoulders": 3335,
      "finished": 3336,
      "generally": 3337,
      "strode": 3338,
      "solemn": 3339,
      "rote": 3340,
      "venge": 3341,
      "strugg": 3342,
      "resist": 3343,
      "comb": 3344,
      "Thou": 3345,
      "provided": 3346,
      "disap": 3347,
      "comply": 3348,
      "Ara": 3349,
      "umph": 3350,
      "ques": 3351,
      "establ": 3352,
      "working": 3353,
      "Sil": 3354,
      "_Ex": 3355,
      "bab": 3356,
      "inquir": 3357,
      "pot": 3358,
      "somewhat": 3359,
      "fail": 3360,
      "Arthur": 3361,
      "license": 3362,
      "bent": 3363,
      "nur": 3364,
      "despair": 3365,
      "Certain": 3366,
      "000": 3367,
      "Mat": 3368,
      "leep": 3369,
      "nobody": 3370,
      "mentioned": 3371,
      "kni": 3372,
      "grate": 3373,
      "phrase": 3374,
      "honor": 3375,
      "gest": 3376,
      "link": 3377,
      "Casau": 3378,
      "opposite": 3379,
      "Tr": 3380,
      "rable": 3381,
      "hib": 3382,
      "Valentine": 3383,
      "vert": 3384,
      "lod": 3385,
      "più": 3386,
      "deliver": 3387,
      "deb": 3388,
      "medium": 3389,
      "tive": 3390,
      "handsome": 3391,
      "Indeed": 3392,
      "game": 3393,
      "nose": 3394,
      "wouldn": 3395,
      "discus": 3396,
      "emp": 3397,
      "Casaubon": 3398,
      "tur": 3399,
      "smoke": 3400,
      "Father": 3401,
      "Pres": 3402,
      "err": 3403,
      "escap": 3404,
      "Which": 3405,
      "uded": 3406,
      "ashed": 3407,
      "confidence": 3408,
      "fed": 3409,
      "required": 3410,
      "attra": 3411,
      "tray": 3412,
      "engineer": 3413,
      "states": 3414,
      "yours": 3415,
      "empty": 3416,
      "cousin": 3417,
      "smiling": 3418,
      "té": 3419,
      "army": 3420,
      "distribution": 3421,
      "quietly": 3422,
      "yesterday": 3423,
      "tongue": 3424,
      "oper": 3425,
      "BE": 3426,
      "nal": 3427,
      "ais": 3428,
      "aux": 3429,
      "laughing": 3430,
      "faces": 3431,
      "ky": 3432,
      "history": 3433,
      "stead": 3434,
      "fish": 3435,
      "zing": 3436,
      "alive": 3437,
      "forty": 3438,
      "feat": 3439,
      "otherwise": 3440,
      "yrus": 3441,
      "satisfaction": 3442,
      "pieces": 3443,
      "cli": 3444,
      "itary": 3445,
      "compreh": 3446,
      "doors": 3447,
      "Watson": 3448,
      "Dick": 3449,
      "tw": 3450,
      "vig": 3451,
      "moments": 3452,
      "carefully": 3453,
      "mut": 3454,
      "presently": 3455,
      "Alice": 3456,
      "Craw": 3457,
      "loss": 3458,
      "ilar": 3459,
      "anti": 3460,
      "mais": 3461,
      "bore": 3462,
      "counter": 3463,
      "regret": 3464,
      "Dar": 3465,
      "Poor": 3466,
      "lines": 3467,
      "solic": 3468,
      "horror": 3469,
      "abs": 3470,
      "ordered": 3471,
      "Crawford": 3472,
      "IT": 3473,
      "llen": 3474,
      "cler": 3475,
      "mighty": 3476,
      "sailor": 3477,
      "intellect": 3478,
      "17": 3479,
      "gif": 3480,
      "us_": 3481,
      "Tommy": 3482,
      "Tup": 3483,
      "cit": 3484,
      "oke": 3485,
      "hab": 3486,
      ",)": 3487,
      "Ken": 3488,
      "cot": 3489,
      "uneas": 3490,
      "education": 3491,
      "gs": 3492,
      "distant": 3493,
      "Cyrus": 3494,
      "France": 3495,
      "cow": 3496,
      "wore": 3497,
      "imagination": 3498,
      "jesty": 3499,
      "explanation": 3500,
      "wash": 3501,
      "tel": 3502,
      "march": 3503,
      "General": 3504,
      "Lau": 3505,
      "ork": 3506,
      "dropped": 3507,
      "twice": 3508,
      "rever": 3509,
      "armed": 3510,
      "happen": 3511,
      "personal": 3512,
      "grief": 3513,
      ":--": 3514,
      "magn": 3515,
      "More": 3516,
      "Tuppence": 3517,
      "gress": 3518,
      "seized": 3519,
      "acle": 3520,
      "finding": 3521,
      "être": 3522,
      "space": 3523,
      "Nature": 3524,
      "aid": 3525,
      "yard": 3526,
      "moving": 3527,
      "hearing": 3528,
      "dull": 3529,
      "fru": 3530,
      "mitted": 3531,
      "ante": 3532,
      "hea": 3533,
      "coast": 3534,
      "gives": 3535,
      "rim": 3536,
      "itive": 3537,
      "propri": 3538,
      "seek": 3539,
      "grou": 3540,
      "Besides": 3541,
      "Eu": 3542,
      "couldn": 3543,
      "itors": 3544,
      "Certainly": 3545,
      "Bob": 3546,
      "pure": 3547,
      "alo": 3548,
      "everybody": 3549,
      "virt": 3550,
      "Phi": 3551,
      "Van": 3552,
      "date": 3553,
      "yield": 3554,
      "exceed": 3555,
      "south": 3556,
      "sympa": 3557,
      "pardon": 3558,
      "kindness": 3559,
      "Anne": 3560,
      "Ca": 3561,
      "Min": 3562,
      "tha": 3563,
      "request": 3564,
      "unknown": 3565,
      "perceived": 3566,
      "owner": 3567,
      "ideas": 3568,
      "Common": 3569,
      "Fogg": 3570,
      "brown": 3571,
      "wing": 3572,
      "arest": 3573,
      "familiar": 3574,
      "thunder": 3575,
      "lla": 3576,
      "north": 3577,
      "leap": 3578,
      "teeth": 3579,
      "fault": 3580,
      "telling": 3581,
      ",--": 3582,
      "rushed": 3583,
      "watching": 3584,
      "crit": 3585,
      "thorough": 3586,
      "nation": 3587,
      "wrote": 3588,
      "seated": 3589,
      "ests": 3590,
      "obtain": 3591,
      "Red": 3592,
      "iously": 3593,
      "lit": 3594,
      "yer": 3595,
      "oned": 3596,
      "terri": 3597,
      "aside": 3598,
      "ali": 3599,
      "fet": 3600,
      "clim": 3601,
      "iments": 3602,
      "immediate": 3603,
      "possessed": 3604,
      "liance": 3605,
      "ounced": 3606,
      "marks": 3607,
      "triumph": 3608,
      "concerning": 3609,
      "efforts": 3610,
      "extraordinary": 3611,
      "inced": 3612,
      "odd": 3613,
      "doll": 3614,
      "putting": 3615,
      "Shall": 3616,
      "AT": 3617,
      "stem": 3618,
      "afford": 3619,
      "disappeared": 3620,
      "Laurie": 3621,
      "Hale": 3622,
      "threat": 3623,
      "imper": 3624,
      "seless": 3625,
      "prim": 3626,
      "rail": 3627,
      "drive": 3628,
      "Bul": 3629,
      "iers": 3630,
      "revol": 3631,
      "faire": 3632,
      "March": 3633,
      "hurried": 3634,
      "usually": 3635,
      "absolutely": 3636,
      "removed": 3637,
      "superi": 3638,
      "preci": 3639,
      "naturally": 3640,
      "Ge": 3641,
      "Upon": 3642,
      "iam": 3643,
      "uses": 3644,
      "attack": 3645,
      "volun": 3646,
      "hurry": 3647,
      "pounds": 3648,
      "Kenni": 3649,
      "?'": 3650,
      "crime": 3651,
      "choose": 3652,
      "LO": 3653,
      "mour": 3654,
      "intim": 3655,
      "inno": 3656,
      "cking": 3657,
      "higher": 3658,
      "names": 3659,
      "example": 3660,
      "Two": 3661,
      "sides": 3662,
      "itution": 3663,
      "promised": 3664,
      "Du": 3665,
      "bill": 3666,
      "bush": 3667,
      "eral": 3668,
      "troub": 3669,
      "touched": 3670,
      "fingers": 3671,
      ".,": 3672,
      "Din": 3673,
      "Dun": 3674,
      "hopes": 3675,
      "takes": 3676,
      "lower": 3677,
      "dwell": 3678,
      "rare": 3679,
      "hoped": 3680,
      "Cad": 3681,
      "moral": 3682,
      "join": 3683,
      "surround": 3684,
      "evident": 3685,
      "Porthos": 3686,
      "oted": 3687,
      "weeks": 3688,
      "ancient": 3689,
      "intended": 3690,
      "avoid": 3691,
      "swift": 3692,
      "Kennicott": 3693,
      "ome": 3694,
      "sought": 3695,
      "asleep": 3696,
      "tier": 3697,
      "fields": 3698,
      "Franz": 3699,
      "OLI": 3700,
      "grown": 3701,
      "clever": 3702,
      "rested": 3703,
      "various": 3704,
      "Buck": 3705,
      "equi": 3706,
      "ives": 3707,
      "tum": 3708,
      "ceased": 3709,
      "distress": 3710,
      "hither": 3711,
      "Rome": 3712,
      "Bulstrode": 3713,
      "AB": 3714,
      "Am": 3715,
      "double": 3716,
      "plained": 3717,
      "horrible": 3718,
      "points": 3719,
      "ainted": 3720,
      "Marian": 3721,
      "possibly": 3722,
      "value": 3723,
      "curiosity": 3724,
      "occupied": 3725,
      "superior": 3726,
      "Naut": 3727,
      "assure": 3728,
      "native": 3729,
      "creatures": 3730,
      "west": 3731,
      "favor": 3732,
      "knees": 3733,
      "Sunday": 3734,
      "hate": 3735,
      "ume": 3736,
      "LET": 3737,
      "original": 3738,
      "Nautil": 3739,
      "ading": 3740,
      "birds": 3741,
      "Marianne": 3742,
      "lun": 3743,
      "nie": 3744,
      "resh": 3745,
      "cean": 3746,
      "Barbic": 3747,
      "cardinal": 3748,
      "Barbicane": 3749,
      "een": 3750,
      "cting": 3751,
      "gray": 3752,
      "Still": 3753,
      "matters": 3754,
      "arrange": 3755,
      "Heaven": 3756,
      "trou": 3757,
      "worked": 3758,
      "cruel": 3759,
      "sentence": 3760,
      "applic": 3761,
      "consequence": 3762,
      "finger": 3763,
      "York": 3764,
      "ester": 3765,
      "distin": 3766,
      "growing": 3767,
      "Rep": 3768,
      "myst": 3769,
      "lett": 3770,
      "nearer": 3771,
      "busy": 3772,
      "bag": 3773,
      "chan": 3774,
      "Rosa": 3775,
      "aim": 3776,
      "isn": 3777,
      "events": 3778,
      "remarkable": 3779,
      "absence": 3780,
      "hole": 3781,
      "witness": 3782,
      "ost": 3783,
      "ette": 3784,
      "manners": 3785,
      "comte": 3786,
      "dir": 3787,
      "shape": 3788,
      "voir": 3789,
      "fix": 3790,
      "capable": 3791,
      "Only": 3792,
      "Rosamond": 3793,
      "ché": 3794,
      "bott": 3795,
      "begun": 3796,
      "joined": 3797,
      "wishes": 3798,
      "secure": 3799,
      "stern": 3800,
      "midst": 3801,
      "fierce": 3802,
      "fran": 3803,
      "oh": 3804,
      "sacri": 3805,
      "drove": 3806,
      "Most": 3807,
      "dign": 3808,
      "ja": 3809,
      "alley": 3810,
      "myster": 3811,
      "useful": 3812,
      "warri": 3813,
      "advice": 3814,
      "laughter": 3815,
      "Rat": 3816,
      "Sh": 3817,
      "suffered": 3818,
      "anto": 3819,
      "alous": 3820,
      "interesting": 3821,
      "clearly": 3822,
      "labor": 3823,
      "knife": 3824,
      "sme": 3825,
      "istribut": 3826,
      "skin": 3827,
      "importance": 3828,
      "lifted": 3829,
      "Gu": 3830,
      "inside": 3831,
      "nod": 3832,
      "mot": 3833,
      "contem": 3834,
      "sphere": 3835,
      "queen": 3836,
      "subst": 3837,
      "similar": 3838,
      "succeeded": 3839,
      "CI": 3840,
      "lace": 3841,
      "accompl": 3842,
      "Before": 3843,
      "dangerous": 3844,
      "welcome": 3845,
      "Indian": 3846,
      "cil": 3847,
      "amid": 3848,
      "miserable": 3849,
      "color": 3850,
      "proceeded": 3851,
      "benef": 3852,
      "American": 3853,
      "Dinah": 3854,
      "Im": 3855,
      "oth": 3856,
      "iff": 3857,
      "prud": 3858,
      "calling": 3859,
      "lovely": 3860,
      "Harri": 3861,
      "bare": 3862,
      "mous": 3863,
      "noticed": 3864,
      "exe": 3865,
      "Ital": 3866,
      "posing": 3867,
      "ashing": 3868,
      "convinced": 3869,
      "Harriet": 3870,
      "OL": 3871,
      "cun": 3872,
      "gas": 3873,
      "respond": 3874,
      "consent": 3875,
      "active": 3876,
      "observe": 3877,
      "dressed": 3878,
      "SIR": 3879,
      "assured": 3880,
      "relief": 3881,
      "surely": 3882,
      "enger": 3883,
      "finally": 3884,
      "ets": 3885,
      "material": 3886,
      "inn": 3887,
      "animals": 3888,
      "llo": 3889,
      "ception": 3890,
      "affairs": 3891,
      "government": 3892,
      "suit": 3893,
      "Would": 3894,
      "apo": 3895,
      "cart": 3896,
      "xim": 3897,
      "anno": 3898,
      "refer": 3899,
      "colour": 3900,
      "BO": 3901,
      "FOR": 3902,
      "described": 3903,
      "splend": 3904,
      "chang": 3905,
      "spec": 3906,
      "distribute": 3907,
      "accepted": 3908,
      "heap": 3909,
      "lake": 3910,
      "worst": 3911,
      "huge": 3912,
      "movement": 3913,
      "Power": 3914,
      "bles": 3915,
      "fanci": 3916,
      "building": 3917,
      "ude": 3918,
      "prepar": 3919,
      "served": 3920,
      "RAN": 3921,
      "explain": 3922,
      "indif": 3923,
      "waters": 3924,
      "excited": 3925,
      "catch": 3926,
      "mistress": 3927,
      "excite": 3928,
      "liberty": 3929,
      "dance": 3930,
      "ture": 3931,
      "Beau": 3932,
      "Thomas": 3933,
      "storm": 3934,
      "IR": 3935,
      "ili": 3936,
      "sumed": 3937,
      "falling": 3938,
      "ification": 3939,
      "Cl": 3940,
      "_Nautil": 3941,
      "cs": 3942,
      "comme": 3943,
      "stock": 3944,
      "graph": 3945,
      "powers": 3946,
      "golden": 3947,
      "origin": 3948,
      "resem": 3949,
      "serve": 3950,
      "driven": 3951,
      "Ay": 3952,
      "Tell": 3953,
      "rum": 3954,
      "vest": 3955,
      "oon": 3956,
      "heat": 3957,
      "whenever": 3958,
      "Mont": 3959,
      "paying": 3960,
      "immen": 3961,
      "soever": 3962,
      "plate": 3963,
      "Mart": 3964,
      "theless": 3965,
      "oul": 3966,
      "iture": 3967,
      "demo": 3968,
      "reasonable": 3969,
      "interested": 3970,
      "là": 3971,
      "delay": 3972,
      "lack": 3973,
      "steam": 3974,
      "Syme": 3975,
      "sacrif": 3976,
      "South": 3977,
      "caused": 3978,
      "scri": 3979,
      "credit": 3980,
      "Charles": 3981,
      "equally": 3982,
      "pul": 3983,
      "betray": 3984,
      "saved": 3985,
      "compar": 3986,
      "bir": 3987,
      "lier": 3988,
      "cool": 3989,
      "anybody": 3990,
      "brain": 3991,
      "arth": 3992,
      "supper": 3993,
      "virtue": 3994,
      "minister": 3995,
      "official": 3996,
      "impression": 3997,
      "Aramis": 3998,
      "infer": 3999,
      "ares": 4000,
      "shine": 4001,
      "Information": 4002,
      "Island": 4003,
      "match": 4004,
      "whispered": 4005,
      "ligion": 4006,
      "kitch": 4007,
      "rait": 4008,
      "thern": 4009,
      "cheerful": 4010,
      "Nay": 4011,
      "stones": 4012,
      "reser": 4013,
      "donate": 4014,
      "sprang": 4015,
      "escaped": 4016,
      "Fair": 4017,
      "Pin": 4018,
      "chest": 4019,
      "bosom": 4020,
      "_Nautilus_": 4021,
      "chos": 4022,
      "prefer": 4023,
      "grey": 4024,
      "custom": 4025,
      "Christian": 4026,
      "occhio": 4027,
      "bridge": 4028,
      "enem": 4029,
      "beha": 4030,
      "visions": 4031,
      "throat": 4032,
      "enemies": 4033,
      "!’": 4034,
      "bie": 4035,
      "iable": 4036,
      "mund": 4037,
      "loose": 4038,
      "wants": 4039,
      "sooner": 4040,
      "murm": 4041,
      "profession": 4042,
      "taught": 4043,
      "greatly": 4044,
      "pause": 4045,
      "monstr": 4046,
      "labour": 4047,
      "10": 4048,
      "drun": 4049,
      "assem": 4050,
      "pré": 4051,
      "viour": 4052,
      "advanced": 4053,
      "mistaken": 4054,
      "ternal": 4055,
      "approached": 4056,
      "neighbour": 4057,
      "Brooke": 4058,
      "Frank": 4059,
      "intention": 4060,
      "minds": 4061,
      "instantly": 4062,
      "constant": 4063,
      "Mid": 4064,
      "apt": 4065,
      "circle": 4066,
      "William": 4067,
      "frightened": 4068,
      "Greek": 4069,
      "Right": 4070,
      "crown": 4071,
      "ram": 4072,
      "civil": 4073,
      "thinks": 4074,
      "forms": 4075,
      "tors": 4076,
      "freed": 4077,
      "anxiety": 4078,
      ":—": 4079,
      "dogs": 4080,
      "Lucy": 4081,
      "poison": 4082,
      "angers": 4083,
      "Great": 4084,
      "libr": 4085,
      "process": 4086,
      "grim": 4087,
      "ATI": 4088,
      "pse": 4089,
      "alarm": 4090,
      "ows": 4091,
      "Old": 4092,
      "flight": 4093,
      "vation": 4094,
      "stup": 4095,
      "savage": 4096,
      "roof": 4097,
      "desper": 4098,
      "Plat": 4099,
      "kitchen": 4100,
      "cé": 4101,
      "enced": 4102,
      "asha": 4103,
      "actually": 4104,
      "BER": 4105,
      "CEN": 4106,
      "gue": 4107,
      "page": 4108,
      "ctive": 4109,
      "sons": 4110,
      "contro": 4111,
      "CON": 4112,
      "Ter": 4113,
      "attent": 4114,
      "powerful": 4115,
      "flew": 4116,
      "Juli": 4117,
      "***": 4118,
      "Bobbie": 4119,
      "30": 4120,
      "unhappy": 4121,
      "explained": 4122,
      "astic": 4123,
      "anywhere": 4124,
      "severe": 4125,
      "soldier": 4126,
      "modern": 4127,
      ";—": 4128,
      "pment": 4129,
      "ulf": 4130,
      "waves": 4131,
      "streets": 4132,
      "ision": 4133,
      "rocks": 4134,
      "illy": 4135,
      "valu": 4136,
      "rupt": 4137,
      "ANY": 4138,
      "immense": 4139,
      "omy": 4140,
      "slo": 4141,
      "dozen": 4142,
      "tail": 4143,
      "yal": 4144,
      "zy": 4145,
      "keen": 4146,
      "necessity": 4147,
      "mistake": 4148,
      "mountain": 4149,
      "Judge": 4150,
      "struggle": 4151,
      "Lou": 4152,
      "trembling": 4153,
      "aled": 4154,
      "feared": 4155,
      "posted": 4156,
      "measure": 4157,
      "Master": 4158,
      "Sm": 4159,
      "bé": 4160,
      "Though": 4161,
      "rule": 4162,
      "understanding": 4163,
      "admit": 4164,
      "Ill": 4165,
      "dish": 4166,
      "Once": 4167,
      "cases": 4168,
      "patient": 4169,
      "Phœ": 4170,
      "Cor": 4171,
      "tut": 4172,
      "wretched": 4173,
      "yser": 4174,
      "appreh": 4175,
      "tram": 4176,
      "Neb": 4177,
      "aper": 4178,
      "ême": 4179,
      "distributed": 4180,
      "16": 4181,
      "aver": 4182,
      "cts": 4183,
      "perceive": 4184,
      "organ": 4185,
      "flesh": 4186,
      "built": 4187,
      "Edmund": 4188,
      "customed": 4189,
      "Europe": 4190,
      "Ser": 4191,
      "failed": 4192,
      "glor": 4193,
      "presented": 4194,
      "strike": 4195,
      "regarded": 4196,
      "style": 4197,
      "Gre": 4198,
      "Ir": 4199,
      "vit": 4200,
      "Because": 4201,
      "choly": 4202,
      "slept": 4203,
      "group": 4204,
      "orter": 4205,
      "paused": 4206,
      "pier": 4207,
      "hearts": 4208,
      "Poyser": 4209,
      "50": 4210,
      "Coun": 4211,
      "Spi": 4212,
      "contact": 4213,
      "shown": 4214,
      "oked": 4215,
      "completely": 4216,
      "hidden": 4217,
      "Mag": 4218,
      "Pri": 4219,
      "WAR": 4220,
      "daw": 4221,
      "consult": 4222,
      "wra": 4223,
      "inces": 4224,
      "buried": 4225,
      "az": 4226,
      "cure": 4227,
      "wicked": 4228,
      "acles": 4229,
      "accustomed": 4230,
      "Beth": 4231,
      "judgment": 4232,
      "features": 4233,
      "cles": 4234,
      "current": 4235,
      "holder": 4236,
      "returning": 4237,
      "arrival": 4238,
      "admiration": 4239,
      "Far": 4240,
      "Hur": 4241,
      "manif": 4242,
      "sounds": 4243,
      "extent": 4244,
      "Mc": 4245,
      "Ri": 4246,
      "melan": 4247,
      "pulled": 4248,
      "inking": 4249,
      "rea": 4250,
      "atic": 4251,
      "unable": 4252,
      "assistance": 4253,
      "melancholy": 4254,
      "Aunt": 4255,
      "arose": 4256,
      "lamp": 4257,
      "quant": 4258,
      "upper": 4259,
      "affect": 4260,
      "desired": 4261,
      "issu": 4262,
      "weap": 4263,
      "minded": 4264,
      "ships": 4265,
      "signs": 4266,
      "probable": 4267,
      "employed": 4268,
      "francs": 4269,
      "Tro": 4270,
      "gather": 4271,
      "mile": 4272,
      "sisters": 4273,
      "lls": 4274,
      "stretched": 4275,
      "tran": 4276,
      "umber": 4277,
      "cheon": 4278,
      "produce": 4279,
      "dying": 4280,
      "gli": 4281,
      "replace": 4282,
      "gras": 4283,
      "gathered": 4284,
      "voyage": 4285,
      "emotion": 4286,
      "pti": 4287,
      "pens": 4288,
      "owing": 4289,
      "foolish": 4290,
      "machine": 4291,
      "sympathy": 4292,
      "Spilett": 4293,
      "Jen": 4294,
      "useless": 4295,
      "incident": 4296,
      "east": 4297,
      "reve": 4298,
      "atmo": 4299,
      "permitted": 4300,
      "text": 4301,
      "exha": 4302,
      "ieux": 4303,
      "udder": 4304,
      "acquainted": 4305,
      "crying": 4306,
      "About": 4307,
      "Therefore": 4308,
      "lieu": 4309,
      "prepare": 4310,
      "authority": 4311,
      "physical": 4312,
      "Pinocchio": 4313,
      "Haw": 4314,
      "bac": 4315,
      "ires": 4316,
      "’,": 4317,
      "shel": 4318,
      "arts": 4319,
      "Hep": 4320,
      "bodies": 4321,
      "drop": 4322,
      "ignorant": 4323,
      "ashamed": 4324,
      "hint": 4325,
      "len": 4326,
      "editions": 4327,
      "stared": 4328,
      "dete": 4329,
      "system": 4330,
      "cabin": 4331,
      "clouds": 4332,
      "interrupted": 4333,
      "ECT": 4334,
      "cree": 4335,
      "voices": 4336,
      "truly": 4337,
      "evidence": 4338,
      "slip": 4339,
      "ano": 4340,
      "repro": 4341,
      "ruin": 4342,
      "Any": 4343,
      "fare": 4344,
      "conscience": 4345,
      "famous": 4346,
      "misery": 4347,
      "praise": 4348,
      "carrying": 4349,
      "rapidly": 4350,
      "Des": 4351,
      "enor": 4352,
      "aband": 4353,
      "convi": 4354,
      "homme": 4355,
      "tale": 4356,
      "pron": 4357,
      "treasure": 4358,
      "Geor": 4359,
      "library": 4360,
      "Sat": 4361,
      "remarked": 4362,
      "quer": 4363,
      "prospect": 4364,
      "suffering": 4365,
      "bah": 4366,
      "asking": 4367,
      "excess": 4368,
      "Toad": 4369,
      "excuse": 4370,
      "baby": 4371,
      "Fre": 4372,
      "pisto": 4373,
      "utions": 4374,
      "progress": 4375,
      "monsieur": 4376,
      "compliance": 4377,
      "reasons": 4378,
      "grees": 4379,
      "bury": 4380,
      "providing": 4381,
      "High": 4382,
      "Take": 4383,
      "gé": 4384,
      "uous": 4385,
      "Hector": 4386,
      "daily": 4387,
      "fifteen": 4388,
      "grateful": 4389,
      "Troy": 4390,
      "invent": 4391,
      "stars": 4392,
      "comput": 4393,
      "frame": 4394,
      "vague": 4395,
      "ody": 4396,
      "explo": 4397,
      "plent": 4398,
      "travel": 4399,
      "brief": 4400,
      "sour": 4401,
      "hills": 4402,
      "projectile": 4403,
      "Fer": 4404,
      "ILI": 4405,
      "gently": 4406,
      "sper": 4407,
      "ule": 4408,
      "ustration": 4409,
      "proble": 4410,
      "propos": 4411,
      "expens": 4412,
      "displaying": 4413,
      "Duke": 4414,
      "rit": 4415,
      "wasn": 4416,
      "degrees": 4417,
      "agg": 4418,
      "compe": 4419,
      "scream": 4420,
      "corre": 4421,
      "Weston": 4422,
      "wisdom": 4423,
      "zibah": 4424,
      "fruit": 4425,
      "entrance": 4426,
      "core": 4427,
      "manage": 4428,
      "flat": 4429,
      "Nemo": 4430,
      "painful": 4431,
      "bowed": 4432,
      "crossed": 4433,
      "apparently": 4434,
      "Hepzibah": 4435,
      "uced": 4436,
      "becoming": 4437,
      "tied": 4438,
      "expressed": 4439,
      "ocean": 4440,
      "fever": 4441,
      "hers": 4442,
      "negle": 4443,
      "cript": 4444,
      "relation": 4445,
      "doesn": 4446,
      "facts": 4447,
      "soldiers": 4448,
      "victim": 4449,
      "mystery": 4450,
      "birth": 4451,
      "DEM": 4452,
      "ldom": 4453,
      "instance": 4454,
      "charming": 4455,
      "cheeks": 4456,
      "delicate": 4457,
      "pill": 4458,
      "sé": 4459,
      "task": 4460,
      "webs": 4461,
      "mony": 4462,
      "violent": 4463,
      "Ger": 4464,
      "rec": 4465,
      "acity": 4466,
      "tire": 4467,
      "desir": 4468,
      "pointment": 4469,
      "delighted": 4470,
      "wounded": 4471,
      "season": 4472,
      "execut": 4473,
      "Achill": 4474,
      "ggl": 4475,
      "remo": 4476,
      "bel": 4477,
      "entreat": 4478,
      "deeply": 4479,
      "bearing": 4480,
      "unfortunate": 4481,
      "instinct": 4482,
      "included": 4483,
      "pictures": 4484,
      "requirements": 4485,
      "Achilles": 4486,
      "Many": 4487,
      "beard": 4488,
      "fait": 4489,
      "awful": 4490,
      "suggested": 4491,
      "square": 4492,
      "divine": 4493,
      "Darcy": 4494,
      "volunteers": 4495,
      "Ano": 4496,
      "WN": 4497,
      "san": 4498,
      "inclined": 4499,
      "troop": 4500,
      "astonishment": 4501,
      "murmured": 4502,
      "inquired": 4503,
      "recollect": 4504,
      "onder": 4505,
      "lee": 4506,
      "iding": 4507,
      "direct": 4508,
      "19": 4509,
      "tit": 4510,
      "ourable": 4511,
      "forehead": 4512,
      "corn": 4513,
      "kindly": 4514,
      "played": 4515,
      "Negro": 4516,
      "ulous": 4517,
      "artic": 4518,
      "previous": 4519,
      "ushing": 4520,
      "Dorian": 4521,
      "Another": 4522,
      "Again": 4523,
      "Fir": 4524,
      "ras": 4525,
      "recomm": 4526,
      "tore": 4527,
      "indul": 4528,
      "lessly": 4529,
      "ANT": 4530,
      "copying": 4531,
      "fellows": 4532,
      "gradually": 4533,
      "Sub": 4534,
      "weep": 4535,
      "mankind": 4536,
      "disclaim": 4537,
      "divid": 4538,
      "solid": 4539,
      "increased": 4540,
      "intellectual": 4541,
      "Cast": 4542,
      "Tis": 4543,
      "uce": 4544,
      "aries": 4545,
      "fees": 4546,
      "convey": 4547,
      "hosp": 4548,
      "haste": 4549,
      "retch": 4550,
      "invest": 4551,
      "Those": 4552,
      "Plato": 4553,
      "Knight": 4554,
      "UR": 4555,
      "thrust": 4556,
      "continue": 4557,
      "advance": 4558,
      "fatal": 4559,
      "exhaust": 4560,
      "Mos": 4561,
      "artist": 4562,
      "retreat": 4563,
      "actions": 4564,
      "committed": 4565,
      "couple": 4566,
      "listening": 4567,
      "gained": 4568,
      "resolution": 4569,
      "14": 4570,
      "cci": 4571,
      "rout": 4572,
      "ato": 4573,
      "agon": 4574,
      "asser": 4575,
      "shock": 4576,
      "objects": 4577,
      "status": 4578,
      "thoroughly": 4579,
      "Que": 4580,
      "fled": 4581,
      "seldom": 4582,
      "resent": 4583,
      "imagined": 4584,
      "Thank": 4585,
      "size": 4586,
      "wanting": 4587,
      "bringing": 4588,
      "erousse": 4589,
      "frequently": 4590,
      "Caderousse": 4591,
      "JECT": 4592,
      "inhabit": 4593,
      "chose": 4594,
      "ghost": 4595,
      "thanks": 4596,
      "format": 4597,
      "bub": 4598,
      "sacred": 4599,
      "raise": 4600,
      "ussi": 4601,
      "indign": 4602,
      "rows": 4603,
      "coura": 4604,
      "shake": 4605,
      "scout": 4606,
      "generous": 4607,
      "Freder": 4608,
      "Aug": 4609,
      "Lion": 4610,
      "friendly": 4611,
      "needed": 4612,
      "neighbor": 4613,
      "consciousness": 4614,
      "adventure": 4615,
      "antic": 4616,
      "trad": 4617,
      "bul": 4618,
      "pless": 4619,
      "Uncle": 4620,
      "America": 4621,
      "Michel": 4622,
      "magnific": 4623,
      "vice": 4624,
      "ald": 4625,
      "locked": 4626,
      "exper": 4627,
      "setting": 4628,
      "limited": 4629,
      "Edward": 4630,
      "dreams": 4631,
      "picked": 4632,
      "dollars": 4633,
      "BERG": 4634,
      ".}": 4635,
      "Elt": 4636,
      "Give": 4637,
      "QU": 4638,
      "jor": 4639,
      "orous": 4640,
      "weary": 4641,
      "partly": 4642,
      "observation": 4643,
      "mysterious": 4644,
      "mail": 4645,
      "interval": 4646,
      "Frederick": 4647,
      "GUT": 4648,
      "ût": 4649,
      "rolled": 4650,
      "omer": 4651,
      "spare": 4652,
      "surd": 4653,
      "ENBERG": 4654,
      "burning": 4655,
      "PROJECT": 4656,
      "GUTENBERG": 4657,
      "kins": 4658,
      "online": 4659,
      "wid": 4660,
      "rade": 4661,
      "accompan": 4662,
      "tele": 4663,
      "playing": 4664,
      "citiz": 4665,
      "WARRAN": 4666,
      "manifest": 4667,
      "website": 4668,
      "First": 4669,
      "grie": 4670,
      "chase": 4671,
      "preced": 4672,
      "concerned": 4673,
      "Like": 4674,
      "BY": 4675,
      "Passe": 4676,
      "lease": 4677,
      "contra": 4678,
      "amuse": 4679,
      "shade": 4680,
      "partout": 4681,
      "embar": 4682,
      "mercy": 4683,
      "champ": 4684,
      "possibility": 4685,
      "highest": 4686,
      "larger": 4687,
      "created": 4688,
      "neighb": 4689,
      "circumstance": 4690,
      "Sher": 4691,
      "cam": 4692,
      "unto": 4693,
      "keeper": 4694,
      "disposition": 4695,
      "bru": 4696,
      "jealous": 4697,
      "suffici": 4698,
      "Jack": 4699,
      "Pla": 4700,
      "gust": 4701,
      "lid": 4702,
      "whist": 4703,
      "preach": 4704,
      "distinct": 4705,
      "horiz": 4706,
      "belief": 4707,
      "kerchief": 4708,
      "Having": 4709,
      "Pyn": 4710,
      "During": 4711,
      "Fare": 4712,
      "remains": 4713,
      "sensible": 4714,
      "chosen": 4715,
      "Hester": 4716,
      "gin": 4717,
      "hence": 4718,
      "même": 4719,
      "ox": 4720,
      "aloud": 4721,
      "lama": 4722,
      "Hey": 4723,
      "lux": 4724,
      "patience": 4725,
      "ignorance": 4726,
      "atmosphere": 4727,
      "XV": 4728,
      "suo": 4729,
      "obst": 4730,
      "lands": 4731,
      "buy": 4732,
      ".--": 4733,
      "Hay": 4734,
      "ws": 4735,
      "hollow": 4736,
      "monster": 4737,
      "glory": 4738,
      "compass": 4739,
      "quarrel": 4740,
      "arranged": 4741,
      "excitement": 4742,
      "Wor": 4743,
      "lif": 4744,
      "angle": 4745,
      "pace": 4746,
      "pied": 4747,
      "powder": 4748,
      "wondered": 4749,
      "swear": 4750,
      "quality": 4751,
      "examined": 4752,
      "leading": 4753,
      "Men": 4754,
      "Spe": 4755,
      "named": 4756,
      "ore": 4757,
      "pick": 4758,
      "rous": 4759,
      "meat": 4760,
      "madame": 4761,
      "safety": 4762,
      "Matty": 4763,
      "Passepartout": 4764,
      "horizon": 4765,
      "Chi": 4766,
      "Ned": 4767,
      "science": 4768,
      "precise": 4769,
      "rence": 4770,
      "centre": 4771,
      "admitted": 4772,
      "affected": 4773,
      "reckon": 4774,
      "August": 4775,
      "resumed": 4776,
      "ays": 4777,
      "folly": 4778,
      "proportion": 4779,
      "spend": 4780,
      "intense": 4781,
      "brilli": 4782,
      "settle": 4783,
      "Author": 4784,
      "reput": 4785,
      "impul": 4786,
      "machus": 4787,
      "demanded": 4788,
      "hanging": 4789,
      "DU": 4790,
      "chant": 4791,
      "leaning": 4792,
      "concealed": 4793,
      "Sure": 4794,
      "vity": 4795,
      "ata": 4796,
      "ators": 4797,
      "await": 4798,
      "departure": 4799,
      "intelligence": 4800,
      "branches": 4801,
      "Vic": 4802,
      "delightful": 4803,
      "folks": 4804,
      "Illustration": 4805,
      "HAM": 4806,
      "Long": 4807,
      "bought": 4808,
      "——”": 4809,
      "doth": 4810,
      "ounce": 4811,
      "store": 4812,
      "cerf": 4813,
      "profound": 4814,
      "subjects": 4815,
      "reme": 4816,
      "exped": 4817,
      "friendship": 4818,
      "amongst": 4819,
      "Morcerf": 4820,
      "principle": 4821,
      "frequent": 4822,
      "Gover": 4823,
      "Land": 4824,
      "dar": 4825,
      "liter": 4826,
      "ua": 4827,
      "ona": 4828,
      "level": 4829,
      "calls": 4830,
      "blame": 4831,
      "skill": 4832,
      "borne": 4833,
      "Knightley": 4834,
      "Med": 4835,
      "paren": 4836,
      "wings": 4837,
      "lect": 4838,
      "dome": 4839,
      "whence": 4840,
      "plans": 4841,
      "nervous": 4842,
      "queer": 4843,
      "violence": 4844,
      "printed": 4845,
      "Phœbe": 4846,
      "OK": 4847,
      "ec": 4848,
      "sche": 4849,
      "fears": 4850,
      "END": 4851,
      "descended": 4852,
      "Elton": 4853,
      "tar": 4854,
      "tight": 4855,
      "iny": 4856,
      "develo": 4857,
      "cook": 4858,
      "cano": 4859,
      "iselle": 4860,
      "lighted": 4861,
      "jum": 4862,
      "notes": 4863,
      "prit": 4864,
      "pipe": 4865,
      "izing": 4866,
      "consideration": 4867,
      "attached": 4868,
      "extremely": 4869,
      "suspicion": 4870,
      "absurd": 4871,
      "lam": 4872,
      "wholly": 4873,
      "wheel": 4874,
      "genius": 4875,
      "Gran": 4876,
      "dared": 4877,
      "sci": 4878,
      "ache": 4879,
      "acknowled": 4880,
      "Hu": 4881,
      "ME": 4882,
      "Sup": 4883,
      "crew": 4884,
      "kn": 4885,
      "handkerchief": 4886,
      "contri": 4887,
      "El": 4888,
      "tent": 4889,
      "ilty": 4890,
      "fairly": 4891,
      "practice": 4892,
      "distinguished": 4893,
      "Troj": 4894,
      "enormous": 4895,
      "Ni": 4896,
      "bree": 4897,
      "tous": 4898,
      "stuff": 4899,
      "vering": 4900,
      "quit": 4901,
      "contain": 4902,
      "shudder": 4903,
      "Julius": 4904,
      "sufficiently": 4905,
      "Sha": 4906,
      "recovered": 4907,
      "energy": 4908,
      "refuse": 4909,
      "People": 4910,
      "rendered": 4911,
      "argument": 4912,
      "Und": 4913,
      "tori": 4914,
      "Thy": 4915,
      "younger": 4916,
      "reaching": 4917,
      "social": 4918,
      "dated": 4919,
      "nights": 4920,
      "attended": 4921,
      "virtu": 4922,
      "dignity": 4923,
      "stupid": 4924,
      "aspect": 4925,
      "utmost": 4926,
      "proposed": 4927,
      "price": 4928,
      "highly": 4929,
      "groan": 4930,
      "declared": 4931,
      "reproach": 4932,
      "Ci": 4933,
      "Tré": 4934,
      "invol": 4935,
      "obed": 4936,
      "steady": 4937,
      "cottage": 4938,
      "philosopher": 4939,
      "Duncan": 4940,
      "rig": 4941,
      "shire": 4942,
      "remaining": 4943,
      "Dorothy": 4944,
      "addressed": 4945,
      "render": 4946,
      "bottle": 4947,
      "iently": 4948,
      "jours": 4949,
      "nu": 4950,
      "nut": 4951,
      "valley": 4952,
      "infinite": 4953,
      "contempt": 4954,
      "caution": 4955,
      "Three": 4956,
      "fastened": 4957,
      "reflection": 4958,
      "eagerly": 4959,
      "heavi": 4960,
      "nous": 4961,
      "lover": 4962,
      "plant": 4963,
      "ension": 4964,
      "fury": 4965,
      "splendid": 4966,
      "echo": 4967,
      "adis": 4968,
      "ender": 4969,
      "trace": 4970,
      "awake": 4971,
      "penet": 4972,
      "prisoner": 4973,
      "shadows": 4974,
      "astonished": 4975,
      "religion": 4976,
      "whatsoever": 4977,
      "colon": 4978,
      "fighting": 4979,
      "Doc": 4980,
      "WI": 4981,
      "”—": 4982,
      "rejo": 4983,
      "unjust": 4984,
      "principal": 4985,
      "Harry": 4986,
      "disturbed": 4987,
      "Pat": 4988,
      "Ven": 4989,
      "coach": 4990,
      "disco": 4991,
      "correspond": 4992,
      "licity": 4993,
      "restri": 4994,
      "careful": 4995,
      "sorts": 4996,
      "smooth": 4997,
      "apartment": 4998,
      "fancied": 4999,
      "Pyncheon": 5000,
      "atory": 5001,
      "today": 5002,
      "logy": 5003,
      "lets": 5004,
      "eleven": 5005,
      "figures": 5006,
      "protect": 5007,
      "Sc": 5008,
      "iant": 5009,
      "og": 5010,
      "absor": 5011,
      "holy": 5012,
      "preva": 5013,
      "officer": 5014,
      "icip": 5015,
      "gratitude": 5016,
      "performing": 5017,
      "engagement": 5018,
      "shelter": 5019,
      "25": 5020,
      "ds": 5021,
      "itate": 5022,
      "staring": 5023,
      "umb": 5024,
      "precious": 5025,
      "utterly": 5026,
      "Pray": 5027,
      "Louis": 5028,
      "HAMLET": 5029,
      "Spir": 5030,
      "haven": 5031,
      "forbid": 5032,
      "improve": 5033,
      "moi": 5034,
      "disposed": 5035,
      "descend": 5036,
      "avail": 5037,
      "Up": 5038,
      "vy": 5039,
      "toler": 5040,
      "ller": 5041,
      "amb": 5042,
      "somewhere": 5043,
      "BOOK": 5044,
      "cere": 5045,
      "eating": 5046,
      "cease": 5047,
      "moor": 5048,
      "constru": 5049,
      "acieux": 5050,
      "pled": 5051,
      "handed": 5052,
      "helped": 5053,
      "capital": 5054,
      "refused": 5055,
      "directed": 5056,
      "furniture": 5057,
      "Bonacieux": 5058,
      "flying": 5059,
      "tide": 5060,
      "informed": 5061,
      "ctr": 5062,
      "appar": 5063,
      "Martha": 5064,
      "Sometimes": 5065,
      "consequently": 5066,
      "connected": 5067,
      "innocent": 5068,
      "dan": 5069,
      "frey": 5070,
      "reality": 5071,
      "Wend": 5072,
      "gig": 5073,
      "ena": 5074,
      "arise": 5075,
      "unted": 5076,
      "lac": 5077,
      "glanced": 5078,
      "reporter": 5079,
      "stands": 5080,
      "fatig": 5081,
      "ement": 5082,
      "sank": 5083,
      "vre": 5084,
      "assa": 5085,
      "wet": 5086,
      "puzz": 5087,
      "Say": 5088,
      "tomorrow": 5089,
      "plun": 5090,
      "breaking": 5091,
      "choice": 5092,
      "souls": 5093,
      "drunk": 5094,
      "Wendy": 5095,
      "28": 5096,
      "DI": 5097,
      "vé": 5098,
      "yo": 5099,
      "wick": 5100,
      "mance": 5101,
      "shaking": 5102,
      "elder": 5103,
      "nin": 5104,
      "pushed": 5105,
      "vag": 5106,
      "sear": 5107,
      "ality": 5108,
      "mood": 5109,
      "poem": 5110,
      "vile": 5111,
      "arker": 5112,
      "sentiment": 5113,
      "faced": 5114,
      "univers": 5115,
      "exceedingly": 5116,
      "ACT": 5117,
      "Homer": 5118,
      "stage": 5119,
      "chin": 5120,
      "ician": 5121,
      "contained": 5122,
      "guide": 5123,
      "properly": 5124,
      "senses": 5125,
      "freedom": 5126,
      "fil": 5127,
      "vou": 5128,
      "user": 5129,
      "fulness": 5130,
      "venture": 5131,
      "heavens": 5132,
      "accompanied": 5133,
      "gown": 5134,
      "beach": 5135,
      "deck": 5136,
      "cries": 5137,
      "risk": 5138,
      "description": 5139,
      "UND": 5140,
      "ias": 5141,
      "perfor": 5142,
      "guilty": 5143,
      "flung": 5144,
      "necessarily": 5145,
      "creating": 5146,
      "learning": 5147,
      "limbs": 5148,
      "mud": 5149,
      "thri": 5150,
      "renew": 5151,
      "eding": 5152,
      "deux": 5153,
      "suspect": 5154,
      "shining": 5155,
      "ols": 5156,
      "akes": 5157,
      "ubli": 5158,
      "exercise": 5159,
      "13": 5160,
      "DIS": 5161,
      "lou": 5162,
      "ads": 5163,
      "geon": 5164,
      "torn": 5165,
      "needs": 5166,
      "stronger": 5167,
      "opinions": 5168,
      "folk": 5169,
      "Smith": 5170,
      "reward": 5171,
      "inging": 5172,
      "unexpected": 5173,
      "sport": 5174,
      "counsel": 5175,
      "mountains": 5176,
      "seriously": 5177,
      "bb": 5178,
      "elo": 5179,
      "lately": 5180,
      "este": 5181,
      "keys": 5182,
      "condem": 5183,
      "consist": 5184,
      "message": 5185,
      "missed": 5186,
      "difficulties": 5187,
      "Barney": 5188,
      "quisite": 5189,
      "Heyward": 5190,
      "VE": 5191,
      "où": 5192,
      "whir": 5193,
      "mode": 5194,
      "neur": 5195,
      "shoes": 5196,
      "showing": 5197,
      "Ali": 5198,
      "dancing": 5199,
      "xion": 5200,
      "independ": 5201,
      "estate": 5202,
      "composed": 5203,
      "omin": 5204,
      "ashes": 5205,
      "_Exit": 5206,
      "nurse": 5207,
      "demoiselle": 5208,
      "Dear": 5209,
      "cret": 5210,
      "swell": 5211,
      "sending": 5212,
      "isure": 5213,
      "rot": 5214,
      "quet": 5215,
      "illa": 5216,
      "desp": 5217,
      "members": 5218,
      "profit": 5219,
      "approaching": 5220,
      "Bennet": 5221,
      "attach": 5222,
      "details": 5223,
      "62": 5224,
      "pap": 5225,
      "unusual": 5226,
      "Than": 5227,
      "Its": 5228,
      "newsp": 5229,
      "stepped": 5230,
      "applicable": 5231,
      "BR": 5232,
      "Si": 5233,
      "eunt": 5234,
      "sans": 5235,
      "ingen": 5236,
      "ligi": 5237,
      "soil": 5238,
      "brilliant": 5239,
      "12": 5240,
      "ki": 5241,
      "swall": 5242,
      "amma": 5243,
      "likewise": 5244,
      "passa": 5245,
      "Mademoiselle": 5246,
      "wedding": 5247,
      "discovery": 5248,
      "Ayr": 5249,
      "TR": 5250,
      "lens": 5251,
      "irt": 5252,
      "asted": 5253,
      "spected": 5254,
      "nings": 5255,
      "slee": 5256,
      "slightly": 5257,
      "faithful": 5258,
      "treated": 5259,
      "shouted": 5260,
      "links": 5261,
      "Tréville": 5262,
      "hell": 5263,
      "fois": 5264,
      "forever": 5265,
      "dining": 5266,
      "throwing": 5267,
      "plenty": 5268,
      "Ayrton": 5269,
      "Bet": 5270,
      "esar": 5271,
      "irtier": 5272,
      "rag": 5273,
      "cave": 5274,
      "Noirtier": 5275,
      "priest": 5276,
      "expense": 5277,
      "problem": 5278,
      "mess": 5279,
      "shr": 5280,
      "parted": 5281,
      "sleeping": 5282,
      "special": 5283,
      "defective": 5284,
      "habits": 5285,
      "Other": 5286,
      "liqu": 5287,
      "bye": 5288,
      "compla": 5289,
      "slipped": 5290,
      "True": 5291,
      "magnificent": 5292,
      "Clif": 5293,
      "behold": 5294,
      "ida": 5295,
      "waste": 5296,
      "image": 5297,
      "foreign": 5298,
      "relations": 5299,
      "waist": 5300,
      "hungry": 5301,
      "philosophy": 5302,
      "Clifford": 5303,
      "Fa": 5304,
      "Sud": 5305,
      "ially": 5306,
      "recover": 5307,
      "leisure": 5308,
      "upstairs": 5309,
      "pains": 5310,
      "officers": 5311,
      "extended": 5312,
      "fli": 5313,
      "enthus": 5314,
      "silk": 5315,
      "motionless": 5316,
      "Colin": 5317,
      "gloom": 5318,
      "basket": 5319,
      "additional": 5320,
      "ride": 5321,
      "rated": 5322,
      "atre": 5323,
      "estim": 5324,
      "club": 5325,
      "obsc": 5326,
      "deny": 5327,
      "strongly": 5328,
      "REA": 5329,
      "devoted": 5330,
      "divided": 5331,
      "Each": 5332,
      "Pal": 5333,
      "aming": 5334,
      "majesty": 5335,
      "obtained": 5336,
      "destru": 5337,
      "weakness": 5338,
      "conclusion": 5339,
      "equipment": 5340,
      "Could": 5341,
      "sheep": 5342,
      "signific": 5343,
      "reflected": 5344,
      "desperate": 5345,
      "IO": 5346,
      "staff": 5347,
      "colle": 5348,
      "male": 5349,
      "spector": 5350,
      "charged": 5351,
      "warrant": 5352,
      "numbers": 5353,
      "flower": 5354,
      "castle": 5355,
      "receiving": 5356,
      "Granite": 5357,
      "Hon": 5358,
      "MER": 5359,
      "PH": 5360,
      "Ren": 5361,
      "rès": 5362,
      "modest": 5363,
      "ilities": 5364,
      "woke": 5365,
      "cloak": 5366,
      "payments": 5367,
      "Edmond": 5368,
      "domest": 5369,
      "candle": 5370,
      "cunning": 5371,
      "Sudden": 5372,
      "Lat": 5373,
      "fant": 5374,
      "retired": 5375,
      "unch": 5376,
      "deriv": 5377,
      "bolt": 5378,
      "voc": 5379,
      "THIS": 5380,
      "KING": 5381,
      "dart": 5382,
      "dès": 5383,
      "sof": 5384,
      "encounter": 5385,
      "plat": 5386,
      "turns": 5387,
      "complying": 5388,
      "onsense": 5389,
      "ART": 5390,
      "Mole": 5391,
      "closely": 5392,
      "daughters": 5393,
      "variety": 5394,
      "poetry": 5395,
      "leaned": 5396,
      "Hor": 5397,
      "recon": 5398,
      "endo": 5399,
      "entity": 5400,
      "fame": 5401,
      "cia": 5402,
      "attribut": 5403,
      "eleg": 5404,
      "wooden": 5405,
      "North": 5406,
      "Muske": 5407,
      "uneasy": 5408,
      "surrounded": 5409,
      "ccio": 5410,
      "DAM": 5411,
      "Pa": 5412,
      "Pra": 5413,
      "sang": 5414,
      "vul": 5415,
      "notion": 5416,
      "weigh": 5417,
      "discer": 5418,
      "contribut": 5419,
      "misfortune": 5420,
      "Roman": 5421,
      "CAS": 5422,
      "mand": 5423,
      "mate": 5424,
      "alle": 5425,
      "unconscious": 5426,
      "teau": 5427,
      "selfish": 5428,
      "lights": 5429,
      "mingled": 5430,
      "TOBY": 5431,
      "introduced": 5432,
      "Jup": 5433,
      "PO": 5434,
      "gay": 5435,
      "chim": 5436,
      "irie": 5437,
      "agitation": 5438,
      "minist": 5439,
      "prize": 5440,
      "wishing": 5441,
      "falls": 5442,
      "confusion": 5443,
      "Alas": 5444,
      "Prince": 5445,
      "contempl": 5446,
      "NE": 5447,
      "eh": 5448,
      "ka": 5449,
      "arse": 5450,
      "sevent": 5451,
      "becomes": 5452,
      "motive": 5453,
      "abroad": 5454,
      "excl": 5455,
      "rays": 5456,
      "contented": 5457,
      "recognized": 5458,
      "expenses": 5459,
      "Mur": 5460,
      "lonely": 5461,
      "uted": 5462,
      "earl": 5463,
      "intent": 5464,
      "Gods": 5465,
      "prompt": 5466,
      "paragraphs": 5467,
      "flame": 5468,
      "Fort": 5469,
      "Ke": 5470,
      "Pon": 5471,
      "jac": 5472,
      "lum": 5473,
      "nes": 5474,
      "agony": 5475,
      "quo": 5476,
      "amount": 5477,
      "shield": 5478,
      "tear": 5479,
      "parl": 5480,
      "pointing": 5481,
      "flood": 5482,
      "guns": 5483,
      "Doctor": 5484,
      "rang": 5485,
      "tour": 5486,
      "llis": 5487,
      "sey": 5488,
      "suspected": 5489,
      "agent": 5490,
      "pop": 5491,
      "anticip": 5492,
      "parties": 5493,
      "signal": 5494,
      "continually": 5495,
      "plainly": 5496,
      "Conse": 5497,
      "fortunes": 5498,
      "Woodhouse": 5499,
      "parents": 5500,
      "LY": 5501,
      "Since": 5502,
      "bay": 5503,
      "bark": 5504,
      "record": 5505,
      "stiff": 5506,
      "respon": 5507,
      "commen": 5508,
      "clas": 5509,
      "firmed": 5510,
      "version": 5511,
      "Robert": 5512,
      "Seth": 5513,
      "limitation": 5514,
      "Edna": 5515,
      "ROS": 5516,
      "Helsing": 5517,
      "vengeance": 5518,
      "Bing": 5519,
      "Dash": 5520,
      "iner": 5521,
      "selfe": 5522,
      "everyone": 5523,
      "helpless": 5524,
      "Royal": 5525,
      "fourth": 5526,
      "concluded": 5527,
      "cheek": 5528,
      "Tele": 5529,
      "lers": 5530,
      "pou": 5531,
      "és": 5532,
      "promo": 5533,
      "umn": 5534,
      "visitor": 5535,
      "steel": 5536,
      "sunshine": 5537,
      "striking": 5538,
      "gazed": 5539,
      "bones": 5540,
      "mounted": 5541,
      "hastily": 5542,
      "kissed": 5543,
      "ACK": 5544,
      "accur": 5545,
      "seeking": 5546,
      "trun": 5547,
      "commiss": 5548,
      "mio": 5549,
      "mild": 5550,
      "LIM": 5551,
      "burden": 5552,
      "disappointment": 5553,
      "dawn": 5554,
      "!'": 5555,
      "Phy": 5556,
      "_I": 5557,
      "kin": 5558,
      "mbr": 5559,
      "rear": 5560,
      "stam": 5561,
      "loving": 5562,
      "dol": 5563,
      "brand": 5564,
      "counted": 5565,
      "purple": 5566,
      "conditions": 5567,
      "numerous": 5568,
      "ITED": 5569,
      "vot": 5570,
      "roar": 5571,
      "roll": 5572,
      "disput": 5573,
      "reader": 5574,
      "coup": 5575,
      "swept": 5576,
      "royalties": 5577,
      "conviction": 5578,
      "ALI": 5579,
      "bond": 5580,
      "iest": 5581,
      "sume": 5582,
      "performed": 5583,
      "tie": 5584,
      "sig": 5585,
      "stoop": 5586,
      "slave": 5587,
      "heroes": 5588,
      "_Exeunt": 5589,
      "George": 5590,
      "ggling": 5591,
      "BUT": 5592,
      "Sam": 5593,
      "cin": 5594,
      "beheld": 5595,
      "Through": 5596,
      "clam": 5597,
      "doubtless": 5598,
      "midnight": 5599,
      "slain": 5600,
      "Greece": 5601,
      "preserve": 5602,
      "Dickon": 5603,
      "ILITY": 5604,
      "investig": 5605,
      "Fel": 5606,
      "Lin": 5607,
      "Vin": 5608,
      "dess": 5609,
      "flies": 5610,
      "vait": 5611,
      "ential": 5612,
      "definite": 5613,
      "shrie": 5614,
      "Andrea": 5615,
      "leton": 5616,
      "everywhere": 5617,
      "singing": 5618,
      "startled": 5619,
      "Bingley": 5620,
      "Ac": 5621,
      "Bra": 5622,
      "Time": 5623,
      "indis": 5624,
      "princes": 5625,
      "longed": 5626,
      "appearing": 5627,
      "arrive": 5628,
      "promin": 5629,
      "blessed": 5630,
      "reputation": 5631,
      "derivative": 5632,
      "LIMITED": 5633,
      "Out": 5634,
      "cen": 5635,
      "revenge": 5636,
      "agger": 5637,
      "grant": 5638,
      "ully": 5639,
      ".’”": 5640,
      "qualities": 5641,
      "publ": 5642,
      "replacement": 5643,
      "Suddenly": 5644,
      "Elli": 5645,
      "Little": 5646,
      "ole": 5647,
      "redistribut": 5648,
      "ints": 5649,
      "specul": 5650,
      "pressing": 5651,
      "winds": 5652,
      "wondering": 5653,
      "summon": 5654,
      "AGRE": 5655,
      "beasts": 5656,
      "increasing": 5657,
      "DAMAG": 5658,
      "Dis": 5659,
      "Gr": 5660,
      "liness": 5661,
      "secur": 5662,
      "entering": 5663,
      "sua": 5664,
      "shed": 5665,
      "appreci": 5666,
      "corpse": 5667,
      "transl": 5668,
      "uniform": 5669,
      "inhabitants": 5670,
      "Garth": 5671,
      "frank": 5672,
      "thine": 5673,
      "insp": 5674,
      "althy": 5675,
      "chet": 5676,
      "masters": 5677,
      "supply": 5678,
      "milk": 5679,
      "warrior": 5680,
      "Isa": 5681,
      "pages": 5682,
      "cepti": 5683,
      "cian": 5684,
      "afterward": 5685,
      "embra": 5686,
      "older": 5687,
      "gets": 5688,
      "generations": 5689,
      "humble": 5690,
      "brows": 5691,
      "annoy": 5692,
      "sacrifice": 5693,
      "Civill": 5694,
      "dain": 5695,
      "assur": 5696,
      "leas": 5697,
      "sees": 5698,
      "idle": 5699,
      "coal": 5700,
      "modif": 5701,
      "lored": 5702,
      "somehow": 5703,
      "track": 5704,
      "Gent": 5705,
      "flu": 5706,
      "pig": 5707,
      "tune": 5708,
      "sul": 5709,
      "protest": 5710,
      "itty": 5711,
      "spark": 5712,
      "trial": 5713,
      "fearful": 5714,
      "exception": 5715,
      "rules": 5716,
      "Sherlock": 5717,
      "pend": 5718,
      "encoura": 5719,
      "forgive": 5720,
      "liest": 5721,
      "deceived": 5722,
      "domin": 5723,
      "granted": 5724,
      "obtaining": 5725,
      "shoot": 5726,
      "sweep": 5727,
      "Without": 5728,
      "driving": 5729,
      "factory": 5730,
      "cliff": 5731,
      "clergy": 5732,
      "Clé": 5733,
      "Under": 5734,
      "MAC": 5735,
      "War": 5736,
      "hit": 5737,
      "oath": 5738,
      "inward": 5739,
      "chor": 5740,
      "scattered": 5741,
      "Mah": 5742,
      "invited": 5743,
      "swim": 5744,
      "Caesar": 5745,
      "German": 5746,
      "Gide": 5747,
      "KE": 5748,
      "Saint": 5749,
      "hic": 5750,
      "pack": 5751,
      "ini": 5752,
      "toss": 5753,
      "meal": 5754,
      "somebody": 5755,
      "walks": 5756,
      "dressing": 5757,
      "entertain": 5758,
      "describe": 5759,
      "Holy": 5760,
      "distinguish": 5761,
      "Clélia": 5762,
      ").": 5763,
      "Huck": 5764,
      "été": 5765,
      "soo": 5766,
      "sheet": 5767,
      "mental": 5768,
      "provisions": 5769,
      "begged": 5770,
      "baron": 5771,
      "chiefly": 5772,
      "defend": 5773,
      "delivered": 5774,
      "quantity": 5775,
      "géné": 5776,
      "Gideon": 5777,
      "IX": 5778,
      "vas": 5779,
      "vive": 5780,
      "inches": 5781,
      "rease": 5782,
      "una": 5783,
      "foe": 5784,
      "stories": 5785,
      "countries": 5786,
      "signed": 5787,
      "Maxim": 5788,
      "respectable": 5789,
      "troubles": 5790,
      "embarr": 5791,
      "Felton": 5792,
      ";”": 5793,
      "Frid": 5794,
      "Oc": 5795,
      "bade": 5796,
      "tho": 5797,
      "abbé": 5798,
      "someone": 5799,
      "intend": 5800,
      "attitude": 5801,
      "pleasures": 5802,
      "gging": 5803,
      "stayed": 5804,
      "LLO": 5805,
      "destroyed": 5806,
      "inquiry": 5807,
      "motions": 5808,
      "Middle": 5809,
      "valuable": 5810,
      "citizens": 5811,
      "Elliot": 5812,
      "Dix": 5813,
      "cared": 5814,
      "iet": 5815,
      "heure": 5816,
      "impe": 5817,
      "pool": 5818,
      "chain": 5819,
      "Pole": 5820,
      "legal": 5821,
      "deserted": 5822,
      "embarrass": 5823,
      "egg": 5824,
      "oak": 5825,
      "ura": 5826,
      "vac": 5827,
      "invisible": 5828,
      "feast": 5829,
      "tip": 5830,
      "scrup": 5831,
      "dia": 5832,
      "flag": 5833,
      "Majesty": 5834,
      "knocked": 5835,
      "established": 5836,
      "remembr": 5837,
      "Phyllis": 5838,
      "Olens": 5839,
      "silly": 5840,
      "ité": 5841,
      "bee": 5842,
      "regul": 5843,
      "gaze": 5844,
      "receipt": 5845,
      "Friday": 5846,
      "41": 5847,
      "base": 5848,
      "fid": 5849,
      "amond": 5850,
      "mai": 5851,
      "fax": 5852,
      "merit": 5853,
      "fling": 5854,
      "accordance": 5855,
      "Greeks": 5856,
      "hesitated": 5857,
      "millions": 5858,
      "----”": 5859,
      "ATION": 5860,
      "eus": 5861,
      "nay": 5862,
      "py": 5863,
      "sca": 5864,
      "iti": 5865,
      "hael": 5866,
      "aling": 5867,
      "sob": 5868,
      "peu": 5869,
      "painted": 5870,
      "observing": 5871,
      "constantly": 5872,
      "hunting": 5873,
      "Subject": 5874,
      "Black": 5875,
      "Mac": 5876,
      "beating": 5877,
      "unpleasant": 5878,
      "sustain": 5879,
      "aught": 5880,
      "Neither": 5881,
      "grounds": 5882,
      "creation": 5883,
      "methods": 5884,
      "Celia": 5885,
      "Presently": 5886,
      "hitherto": 5887,
      "Eh": 5888,
      "Hart": 5889,
      "San": 5890,
      "»,": 5891,
      "ita": 5892,
      "tering": 5893,
      "etc": 5894,
      "major": 5895,
      "kingdom": 5896,
      "nevertheless": 5897,
      "diamond": 5898,
      "certainty": 5899,
      "flatter": 5900,
      "fortunately": 5901,
      "deliber": 5902,
      "smell": 5903,
      "drown": 5904,
      "tant": 5905,
      "uries": 5906,
      "ont": 5907,
      "sex": 5908,
      "pear": 5909,
      "consol": 5910,
      "plor": 5911,
      "gran": 5912,
      "readily": 5913,
      "greet": 5914,
      "grande": 5915,
      "species": 5916,
      "communication": 5917,
      "Mans": 5918,
      "pant": 5919,
      "sink": 5920,
      "vell": 5921,
      "endure": 5922,
      "brothers": 5923,
      "ugly": 5924,
      "Vincy": 5925,
      "Che": 5926,
      "Dav": 5927,
      "OTHE": 5928,
      "job": 5929,
      "tto": 5930,
      "lio": 5931,
      "adop": 5932,
      "throughout": 5933,
      "villain": 5934,
      "incere": 5935,
      "hundreds": 5936,
      "announced": 5937,
      "satisf": 5938,
      "repeat": 5939,
      "Conseil": 5940,
      "Jim": 5941,
      "lof": 5942,
      "pest": 5943,
      "tap": 5944,
      "âteau": 5945,
      "stable": 5946,
      "writer": 5947,
      "hearted": 5948,
      "mia": 5949,
      "apply": 5950,
      "feeble": 5951,
      "meantime": 5952,
      "gloomy": 5953,
      "compliment": 5954,
      "earnestly": 5955,
      "gesture": 5956,
      "discussion": 5957,
      "troubled": 5958,
      "accomplished": 5959,
      "tranqu": 5960,
      "destruction": 5961,
      "11": 5962,
      "CLO": 5963,
      "Mme": 5964,
      "Pol": 5965,
      "Ty": 5966,
      "hated": 5967,
      "ora": 5968,
      "peut": 5969,
      "managed": 5970,
      "overcome": 5971,
      "fires": 5972,
      "straw": 5973,
      "views": 5974,
      "governor": 5975,
      "benefit": 5976,
      "troops": 5977,
      "impulse": 5978,
      "heavily": 5979,
      "Gray": 5980,
      "Grant": 5981,
      "Him": 5982,
      "rors": 5983,
      "ids": 5984,
      "advis": 5985,
      "shone": 5986,
      "boots": 5987,
      "careless": 5988,
      "rude": 5989,
      "uttering": 5990,
      "drinking": 5991,
      "Mean": 5992,
      "Sahib": 5993,
      "disturb": 5994,
      "indiffer": 5995,
      "ilian": 5996,
      "precisely": 5997,
      "27": 5998,
      "EX": 5999,
      "NI": 6000,
      "gates": 6001,
      "pine": 6002,
      "ées": 6003,
      "insult": 6004,
      "remove": 6005,
      "stal": 6006,
      "teer": 6007,
      "après": 6008,
      "elbow": 6009,
      "Assem": 6010,
      "incred": 6011,
      "increase": 6012,
      "occasions": 6013,
      "experienced": 6014,
      "departed": 6015,
      "separated": 6016,
      "title": 6017,
      "han": 6018,
      "ander": 6019,
      "loves": 6020,
      "absent": 6021,
      "wilder": 6022,
      "principles": 6023,
      "amais": 6024,
      "Cousin": 6025,
      "Ladis": 6026,
      "Please": 6027,
      "idly": 6028,
      "immortal": 6029,
      "disgrace": 6030,
      "poses": 6031,
      "restra": 6032,
      "objection": 6033,
      "bella": 6034,
      "AGO": 6035,
      "altered": 6036,
      "Bertram": 6037,
      "Pre": 6038,
      "lust": 6039,
      "rolling": 6040,
      "nearest": 6041,
      "emer": 6042,
      "headed": 6043,
      "movements": 6044,
      "relieved": 6045,
      "belonged": 6046,
      "breathing": 6047,
      "fetch": 6048,
      "Queen": 6049,
      "Nicho": 6050,
      "Maximilian": 6051,
      "OTHELLO": 6052,
      "CLOWN": 6053,
      "Fix": 6054,
      "Span": 6055,
      "fain": 6056,
      "recollection": 6057,
      "owns": 6058,
      "eleph": 6059,
      "follows": 6060,
      "Godfrey": 6061,
      "occasionally": 6062,
      "vanished": 6063,
      "million": 6064,
      "convenient": 6065,
      "endeavour": 6066,
      "bushes": 6067,
      "distinctly": 6068,
      "fan": 6069,
      "ête": 6070,
      "inate": 6071,
      "ades": 6072,
      "urged": 6073,
      "cloth": 6074,
      "register": 6075,
      "oubted": 6076,
      "related": 6077,
      "facul": 6078,
      "madam": 6079,
      "NOT": 6080,
      "gift": 6081,
      "Dixon": 6082,
      "Ladislaw": 6083,
      "Nicholl": 6084,
      "Hal": 6085,
      "Script": 6086,
      "bust": 6087,
      "mult": 6088,
      "pho": 6089,
      "uis": 6090,
      "error": 6091,
      "stan": 6092,
      "neys": 6093,
      "resign": 6094,
      "deri": 6095,
      "ieu": 6096,
      "marqu": 6097,
      "Mais": 6098,
      "concern": 6099,
      "determine": 6100,
      "Govern": 6101,
      "Telemachus": 6102,
      "Port": 6103,
      "idity": 6104,
      "flour": 6105,
      "sunk": 6106,
      "grandfather": 6107,
      "military": 6108,
      "impatient": 6109,
      "disappointed": 6110,
      "glorious": 6111,
      "IAGO": 6112,
      "Tu": 6113,
      "iot": 6114,
      "thither": 6115,
      "ascertain": 6116,
      "deeper": 6117,
      "pressure": 6118,
      "dragged": 6119,
      "final": 6120,
      "trick": 6121,
      "contrad": 6122,
      "furnished": 6123,
      "execution": 6124,
      "platform": 6125,
      "SCEN": 6126,
      "mé": 6127,
      "pent": 6128,
      "beloved": 6129,
      "chol": 6130,
      "withstanding": 6131,
      "abund": 6132,
      "shif": 6133,
      "cial": 6134,
      "scorn": 6135,
      "Kingdome": 6136,
      "gifts": 6137,
      "None": 6138,
      "fum": 6139,
      "pink": 6140,
      "oner": 6141,
      "encourage": 6142,
      "offee": 6143,
      "acknowledge": 6144,
      "interpre": 6145,
      "chap": 6146,
      "brig": 6147,
      "prayer": 6148,
      "connection": 6149,
      "families": 6150,
      "Olenska": 6151,
      "Ste": 6152,
      "Top": 6153,
      "sar": 6154,
      "sway": 6155,
      "religi": 6156,
      "cele": 6157,
      "owulf": 6158,
      "termin": 6159,
      "fection": 6160,
      "confirm": 6161,
      "containing": 6162,
      "sire": 6163,
      "founded": 6164,
      "commit": 6165,
      "commonly": 6166,
      "considering": 6167,
      "eaten": 6168,
      "behaviour": 6169,
      "weapon": 6170,
      "Dashwood": 6171,
      "Ros": 6172,
      "cence": 6173,
      "ssi": 6174,
      "comment": 6175,
      "attac": 6176,
      "Too": 6177,
      "sounded": 6178,
      "ridicul": 6179,
      "particulars": 6180,
      "trois": 6181,
      "amaze": 6182,
      "political": 6183,
      "Silas": 6184,
      "nodded": 6185,
      "Fern": 6186,
      "Mahbub": 6187,
      "celebr": 6188,
      "Ver": 6189,
      "hound": 6190,
      "sco": 6191,
      "ana": 6192,
      "mechan": 6193,
      "raising": 6194,
      "lament": 6195,
      "confirmed": 6196,
      "acquired": 6197,
      "caut": 6198,
      "Beowulf": 6199,
      "flash": 6200,
      "lucky": 6201,
      "hideous": 6202,
      "substance": 6203,
      "Has": 6204,
      "based": 6205,
      "jamais": 6206,
      "button": 6207,
      "eta": 6208,
      "prosper": 6209,
      "disci": 6210,
      "disagreeable": 6211,
      "prend": 6212,
      "strangers": 6213,
      "Prophe": 6214,
      "wake": 6215,
      "Except": 6216,
      "crowded": 6217,
      "Everything": 6218,
      "softly": 6219,
      "Moses": 6220,
      "SCENE": 6221,
      "sive": 6222,
      "arrested": 6223,
      "vern": 6224,
      "sait": 6225,
      "erson": 6226,
      "vivid": 6227,
      "Bell": 6228,
      "Sea": 6229,
      "murmur": 6230,
      "practical": 6231,
      "hatred": 6232,
      "prevented": 6233,
      "tenderness": 6234,
      "persuaded": 6235,
      "Fairfax": 6236,
      "jumped": 6237,
      "absorbed": 6238,
      "90": 6239,
      "cis": 6240,
      "fus": 6241,
      "thread": 6242,
      "ino": 6243,
      "injustice": 6244,
      "peep": 6245,
      "amiable": 6246,
      "domain": 6247,
      "exquisite": 6248,
      "traces": 6249,
      "scent": 6250,
      "inclination": 6251,
      "decision": 6252,
      "grove": 6253,
      "glasses": 6254,
      "defence": 6255,
      "VIA": 6256,
      "treatment": 6257,
      "punishment": 6258,
      "........": 6259,
      "Hill": 6260,
      "TRI": 6261,
      "acted": 6262,
      "envelo": 6263,
      "tot": 6264,
      "pover": 6265,
      "causes": 6266,
      "igno": 6267,
      "Ardan": 6268,
      "ensive": 6269,
      "visited": 6270,
      "merry": 6271,
      "fired": 6272,
      "warning": 6273,
      "steep": 6274,
      "sixty": 6275,
      "depth": 6276,
      "effects": 6277,
      "consequences": 6278,
      "compelled": 6279,
      "exhausted": 6280,
      "colonists": 6281,
      "Middlemarch": 6282,
      "emed": 6283,
      "mou": 6284,
      "tered": 6285,
      "neat": 6286,
      "concept": 6287,
      "propose": 6288,
      "bers": 6289,
      "thence": 6290,
      "forming": 6291,
      "writ": 6292,
      "volume": 6293,
      "drift": 6294,
      "humour": 6295,
      "furious": 6296,
      "mourn": 6297,
      "ctrine": 6298,
      "vulgar": 6299,
      "Vir": 6300,
      "gross": 6301,
      "exempt": 6302,
      "omen": 6303,
      "awak": 6304,
      "depths": 6305,
      "hunger": 6306,
      "frightful": 6307,
      "Mercé": 6308,
      "favourite": 6309,
      "branch": 6310,
      "Michael": 6311,
      "steadily": 6312,
      "remembrance": 6313,
      "Mercédès": 6314,
      "Bull": 6315,
      "Cra": 6316,
      "MAR": 6317,
      "OLA": 6318,
      "pup": 6319,
      "poured": 6320,
      "sse": 6321,
      "sincere": 6322,
      "reign": 6323,
      "ghter": 6324,
      "copied": 6325,
      "acious": 6326,
      "appointed": 6327,
      "speaks": 6328,
      "starting": 6329,
      "audience": 6330,
      "solicit": 6331,
      "railway": 6332,
      "Jona": 6333,
      "chas": 6334,
      "nois": 6335,
      "abled": 6336,
      "abrupt": 6337,
      "agues": 6338,
      "sibility": 6339,
      "medic": 6340,
      "curtain": 6341,
      "drag": 6342,
      "coloured": 6343,
      "polite": 6344,
      "prudent": 6345,
      "Irwine": 6346,
      "Jonathan": 6347,
      "GER": 6348,
      "vable": 6349,
      "vet": 6350,
      "ults": 6351,
      "disgust": 6352,
      "string": 6353,
      "bride": 6354,
      "examination": 6355,
      "Comp": 6356,
      "duties": 6357,
      "slumber": 6358,
      "Silver": 6359,
      "control": 6360,
      "available": 6361,
      "Till": 6362,
      "vated": 6363,
      "incess": 6364,
      "feather": 6365,
      "illust": 6366,
      "premi": 6367,
      "viously": 6368,
      "refresh": 6369,
      "Parme": 6370,
      "quarters": 6371,
      "narr": 6372,
      "instrument": 6373,
      "OLIVIA": 6374,
      "route": 6375,
      "Meanwhile": 6376,
      "Cy": 6377,
      "Et": 6378,
      "Len": 6379,
      "_A": 6380,
      "snat": 6381,
      "inher": 6382,
      "utenant": 6383,
      "gio": 6384,
      "interior": 6385,
      "cleared": 6386,
      "guests": 6387,
      "tonight": 6388,
      "shows": 6389,
      "VIOLA": 6390,
      "India": 6391,
      "pockets": 6392,
      "balloon": 6393,
      "enjoyed": 6394,
      "coward": 6395,
      "Off": 6396,
      "Rush": 6397,
      "VII": 6398,
      "écri": 6399,
      "ado": 6400,
      "suitors": 6401,
      "agitated": 6402,
      "conject": 6403,
      "naked": 6404,
      "appet": 6405,
      "coln": 6406,
      "quelque": 6407,
      "separate": 6408,
      "propriet": 6409,
      "popular": 6410,
      "Lincoln": 6411,
      "derived": 6412,
      "Tur": 6413,
      "mart": 6414,
      "mast": 6415,
      "uge": 6416,
      "vap": 6417,
      "zes": 6418,
      "ande": 6419,
      "veget": 6420,
      "owe": 6421,
      "indust": 6422,
      "market": 6423,
      "laying": 6424,
      "Death": 6425,
      "tomb": 6426,
      "Indians": 6427,
      "rushing": 6428,
      "domestic": 6429,
      "sofa": 6430,
      "Cat": 6431,
      "Son": 6432,
      "Tra": 6433,
      "aked": 6434,
      "coffee": 6435,
      "hut": 6436,
      "lst": 6437,
      "remarks": 6438,
      "toil": 6439,
      "mee": 6440,
      "conceive": 6441,
      "ams": 6442,
      "handle": 6443,
      "household": 6444,
      "gram": 6445,
      "gracious": 6446,
      "itual": 6447,
      "applied": 6448,
      "pretend": 6449,
      "leader": 6450,
      "scarlet": 6451,
      "accordingly": 6452,
      "Milton": 6453,
      "Dickens": 6454,
      "dwelling": 6455,
      "DY": 6456,
      "East": 6457,
      "nic": 6458,
      "theory": 6459,
      "ensible": 6460,
      "roses": 6461,
      "whip": 6462,
      "oking": 6463,
      "earlier": 6464,
      "president": 6465,
      "wrought": 6466,
      "mischief": 6467,
      "century": 6468,
      "palace": 6469,
      "pursued": 6470,
      "folded": 6471,
      "source": 6472,
      "amazement": 6473,
      "Word": 6474,
      "_you": 6475,
      "fought": 6476,
      "rut": 6477,
      "tober": 6478,
      "heels": 6479,
      "sore": 6480,
      "rival": 6481,
      "peror": 6482,
      "type": 6483,
      "glow": 6484,
      "driver": 6485,
      "invitation": 6486,
      "expectation": 6487,
      "lodge": 6488,
      "October": 6489,
      "DE": 6490,
      "LU": 6491,
      "cattle": 6492,
      "dearest": 6493,
      "cock": 6494,
      "abor": 6495,
      "extrem": 6496,
      "tells": 6497,
      "happily": 6498,
      "trembled": 6499,
      "slightest": 6500,
      "OLIO": 6501,
      "CASSI": 6502,
      "Er": 6503,
      "GH": 6504,
      "Pearl": 6505,
      "VOLIO": 6506,
      "Wick": 6507,
      "nations": 6508,
      "itating": 6509,
      "halt": 6510,
      "aly": 6511,
      "alarmed": 6512,
      "likes": 6513,
      "lightly": 6514,
      "gia": 6515,
      "actual": 6516,
      "ceiving": 6517,
      "confused": 6518,
      "dimin": 6519,
      "convul": 6520,
      "convenience": 6521,
      "papa": 6522,
      "David": 6523,
      "Gop": 6524,
      "Wol": 6525,
      "bred": 6526,
      "nesse": 6527,
      "pite": 6528,
      "wave": 6529,
      "demon": 6530,
      "united": 6531,
      "prophe": 6532,
      "acting": 6533,
      "matic": 6534,
      "madness": 6535,
      "costs": 6536,
      "enjoyment": 6537,
      "lofty": 6538,
      "oubtedly": 6539,
      "Gopher": 6540,
      "Full": 6541,
      "Pac": 6542,
      "_that": 6543,
      "emin": 6544,
      "guest": 6545,
      "bedroom": 6546,
      "angel": 6547,
      "mixed": 6548,
      "bloody": 6549,
      "safely": 6550,
      "fleet": 6551,
      "successful": 6552,
      "lantern": 6553,
      "pursuit": 6554,
      "victory": 6555,
      "Brit": 6556,
      "operation": 6557,
      "commission": 6558,
      "religious": 6559,
      "Plan": 6560,
      "research": 6561,
      "regiment": 6562,
      "ventured": 6563,
      "lively": 6564,
      "touching": 6565,
      "warriors": 6566,
      "changing": 6567,
      "indifference": 6568,
      "Beauchamp": 6569,
      "scheme": 6570,
      "Cour": 6571,
      "Cran": 6572,
      "forces": 6573,
      "lip": 6574,
      "butter": 6575,
      "perple": 6576,
      "accompany": 6577,
      "parting": 6578,
      "pleasing": 6579,
      "Uncas": 6580,
      "collected": 6581,
      "burned": 6582,
      "calculated": 6583,
      "correct": 6584,
      "experiment": 6585,
      "obedience": 6586,
      "plunged": 6587,
      "Use": 6588,
      "Went": 6589,
      "Were": 6590,
      "Ye": 6591,
      "inval": 6592,
      "vex": 6593,
      "commo": 6594,
      "obvious": 6595,
      "traged": 6596,
      "Provid": 6597,
      "ridge": 6598,
      "avoir": 6599,
      "assumed": 6600,
      "betrayed": 6601,
      "Assembly": 6602,
      "!)": 6603,
      "Kemp": 6604,
      "Til": 6605,
      "——": 6606,
      "alled": 6607,
      "sus": 6608,
      "ideal": 6609,
      "longing": 6610,
      "vote": 6611,
      "kinds": 6612,
      "alike": 6613,
      "clergyman": 6614,
      "Jan": 6615,
      "Sep": 6616,
      "lion": 6617,
      "stout": 6618,
      "mead": 6619,
      "irr": 6620,
      "shirt": 6621,
      "accent": 6622,
      "astly": 6623,
      "Joe": 6624,
      "Coll": 6625,
      "trop": 6626,
      "sailors": 6627,
      "staircase": 6628,
      "sensation": 6629,
      "critical": 6630,
      "Trojan": 6631,
      "Sus": 6632,
      "Tz": 6633,
      "Whe": 6634,
      "nonsense": 6635,
      "tanto": 6636,
      "heur": 6637,
      "complain": 6638,
      "disse": 6639,
      "shared": 6640,
      "ott": 6641,
      "THAT": 6642,
      "Does": 6643,
      "brains": 6644,
      "banks": 6645,
      "farmer": 6646,
      "Farebrother": 6647,
      "DUKE": 6648,
      "attachment": 6649,
      "vant": 6650,
      "wives": 6651,
      "load": 6652,
      "udes": 6653,
      "heartily": 6654,
      "impse": 6655,
      "confined": 6656,
      "yeux": 6657,
      "cutting": 6658,
      "protection": 6659,
      "advantages": 6660,
      "Churchill": 6661,
      "Brown": 6662,
      "IA": 6663,
      "dal": 6664,
      "whel": 6665,
      "glimpse": 6666,
      "blan": 6667,
      "silently": 6668,
      "confident": 6669,
      "examine": 6670,
      "Lawes": 6671,
      "Christmas": 6672,
      "adventures": 6673,
      "sighed": 6674,
      "impatience": 6675,
      "intimate": 6676,
      "Tzŭ": 6677,
      "Bath": 6678,
      "Flo": 6679,
      "Ham": 6680,
      "dus": 6681,
      "eût": 6682,
      "mbre": 6683,
      "parent": 6684,
      "sque": 6685,
      "tored": 6686,
      "vered": 6687,
      "sober": 6688,
      "alls": 6689,
      "brush": 6690,
      "fortnight": 6691,
      "compared": 6692,
      "brook": 6693,
      "deeds": 6694,
      "prisoners": 6695,
      "salt": 6696,
      "Cassi": 6697,
      "changes": 6698,
      "recently": 6699,
      "acknowledged": 6700,
      "Wal": 6701,
      "fitted": 6702,
      "jam": 6703,
      "oil": 6704,
      "sau": 6705,
      "fais": 6706,
      "cken": 6707,
      "beings": 6708,
      "repent": 6709,
      "crack": 6710,
      "Gi": 6711,
      "Mal": 6712,
      "gal": 6713,
      "ibly": 6714,
      "ench": 6715,
      "discourse": 6716,
      "prejud": 6717,
      "goodness": 6718,
      "glim": 6719,
      "aker": 6720,
      "eighteen": 6721,
      "maiden": 6722,
      "magist": 6723,
      "comprehend": 6724,
      "cotton": 6725,
      "references": 6726,
      "Jennings": 6727,
      "amusement": 6728,
      "Surely": 6729,
      "virtues": 6730,
      "Prairie": 6731,
      "Chall": 6732,
      "dun": 6733,
      "kers": 6734,
      "beau": 6735,
      "rier": 6736,
      "feed": 6737,
      "pole": 6738,
      "prodig": 6739,
      "moreover": 6740,
      "cies": 6741,
      "partner": 6742,
      "desires": 6743,
      "già": 6744,
      "awk": 6745,
      "smaller": 6746,
      "chairs": 6747,
      "crept": 6748,
      "Life": 6749,
      "hastened": 6750,
      "formerly": 6751,
      "gratul": 6752,
      "combat": 6753,
      "critic": 6754,
      "Scene": 6755,
      "CK": 6756,
      "Fri": 6757,
      "Ming": 6758,
      "eternal": 6759,
      "sadd": 6760,
      "tribut": 6761,
      "enes": 6762,
      "colored": 6763,
      "brass": 6764,
      "cordi": 6765,
      "autre": 6766,
      "petition": 6767,
      "depends": 6768,
      "characters": 6769,
      "ladder": 6770,
      "grasp": 6771,
      "général": 6772,
      "lves": 6773,
      "muttered": 6774,
      "reference": 6775,
      "nox": 6776,
      "poi": 6777,
      "commer": 6778,
      "parish": 6779,
      "smart": 6780,
      "strain": 6781,
      "patron": 6782,
      "commanded": 6783,
      "warmth": 6784,
      "neighbourhood": 6785,
      "Plain": 6786,
      "puzzled": 6787,
      "ublique": 6788,
      "Government": 6789,
      "23": 6790,
      "24": 6791,
      "Ass": 6792,
      "FU": 6793,
      "Mina": 6794,
      "eu": 6795,
      "gments": 6796,
      "patter": 6797,
      "sket": 6798,
      "inch": 6799,
      "melt": 6800,
      "altro": 6801,
      "admi": 6802,
      "worship": 6803,
      "offers": 6804,
      "whereas": 6805,
      "glit": 6806,
      "contents": 6807,
      "fathers": 6808,
      "deadly": 6809,
      "bestow": 6810,
      "towns": 6811,
      "patch": 6812,
      "humanity": 6813,
      "footsteps": 6814,
      "violently": 6815,
      "employment": 6816,
      "admirable": 6817,
      "funeral": 6818,
      "rades": 6819,
      "habited": 6820,
      "Miner": 6821,
      "Satur": 6822,
      "Four": 6823,
      "Wil": 6824,
      "ands": 6825,
      "leather": 6826,
      "bears": 6827,
      "quando": 6828,
      "perman": 6829,
      "prise": 6830,
      "duke": 6831,
      "lasting": 6832,
      "Socr": 6833,
      "skies": 6834,
      "uneasiness": 6835,
      "arrangement": 6836,
      "scient": 6837,
      "breeze": 6838,
      "poverty": 6839,
      "outer": 6840,
      "mock": 6841,
      "outward": 6842,
      "congratul": 6843,
      "letting": 6844,
      "bray": 6845,
      "desol": 6846,
      "interview": 6847,
      "firmly": 6848,
      "maids": 6849,
      "savages": 6850,
      "mutual": 6851,
      "Italian": 6852,
      "abandoned": 6853,
      "hospital": 6854,
      "awkward": 6855,
      "MAL": 6856,
      "Scot": 6857,
      "drank": 6858,
      "faded": 6859,
      "rings": 6860,
      "sne": 6861,
      "array": 6862,
      "heir": 6863,
      "unities": 6864,
      "così": 6865,
      "oughby": 6866,
      "kings": 6867,
      "daylight": 6868,
      "grin": 6869,
      "cris": 6870,
      "Willoughby": 6871,
      "excellency": 6872,
      "desert": 6873,
      "knock": 6874,
      "persuade": 6875,
      "wandering": 6876,
      "distinction": 6877,
      "indifferent": 6878,
      "Minerva": 6879,
      "Tit": 6880,
      "fic": 6881,
      "altern": 6882,
      "monarch": 6883,
      "wherein": 6884,
      "Anton": 6885,
      "linen": 6886,
      "ESS": 6887,
      "hypo": 6888,
      "preserved": 6889,
      "MAN": 6890,
      "Rue": 6891,
      "Sal": 6892,
      "aient": 6893,
      "fis": 6894,
      "hunt": 6895,
      "las": 6896,
      "leaf": 6897,
      "ston": 6898,
      "chick": 6899,
      "depri": 6900,
      "icing": 6901,
      "ifying": 6902,
      "horrid": 6903,
      "Maria": 6904,
      "cares": 6905,
      "craw": 6906,
      "jail": 6907,
      "pronounced": 6908,
      "neighbours": 6909,
      "Isabella": 6910,
      "Rushworth": 6911,
      "Challenger": 6912,
      "Bad": 6913,
      "aj": 6914,
      "zard": 6915,
      "ero": 6916,
      "leur": 6917,
      "metal": 6918,
      "hadn": 6919,
      "quand": 6920,
      "conceived": 6921,
      "provision": 6922,
      "series": 6923,
      "eyed": 6924,
      "void": 6925,
      "vili": 6926,
      "closing": 6927,
      "appeal": 6928,
      "beds": 6929,
      "activ": 6930,
      "solitary": 6931,
      "finish": 6932,
      "TIES": 6933,
      "settlers": 6934,
      "Fox": 6935,
      "trusted": 6936,
      "LADY": 6937,
      "declare": 6938,
      "blows": 6939,
      "hesitation": 6940,
      "inquiries": 6941,
      "_you_": 6942,
      "Providence": 6943,
      "uri": 6944,
      "arrest": 6945,
      "novel": 6946,
      "dost": 6947,
      "holes": 6948,
      "boast": 6949,
      "igg": 6950,
      "medical": 6951,
      "posit": 6952,
      "Inst": 6953,
      "parall": 6954,
      "backward": 6955,
      "directions": 6956,
      "thousands": 6957,
      "brick": 6958,
      "oblig": 6959,
      "icians": 6960,
      "XXX": 6961,
      "killing": 6962,
      "reports": 6963,
      "promoting": 6964,
      "Ona": 6965,
      "Scare": 6966,
      "bone": 6967,
      "bath": 6968,
      "dine": 6969,
      "heed": 6970,
      "procure": 6971,
      "brings": 6972,
      "trap": 6973,
      "insisted": 6974,
      "smallest": 6975,
      "supplied": 6976,
      "stroke": 6977,
      "criminal": 6978,
      "Scarecrow": 6979,
      "BAS": 6980,
      "Str": 6981,
      "bund": 6982,
      "yonder": 6983,
      "amused": 6984,
      "docu": 6985,
      "exposed": 6986,
      "illness": 6987,
      "partial": 6988,
      "clut": 6989,
      "dict": 6990,
      "nerves": 6991,
      "bloom": 6992,
      "pursue": 6993,
      "knee": 6994,
      "affli": 6995,
      "Nevertheless": 6996,
      "debt": 6997,
      "inferior": 6998,
      "Spirit": 6999,
      "eloqu": 7000,
      "Saturday": 7001,
      "Aust": 7002,
      "Get": 7003,
      "Kitty": 7004,
      "ao": 7005,
      "econ": 7006,
      "gor": 7007,
      "pall": 7008,
      "inner": 7009,
      "onde": 7010,
      "edition": 7011,
      "istic": 7012,
      "armes": 7013,
      "lesse": 7014,
      "quella": 7015,
      "survey": 7016,
      "tuous": 7017,
      "strict": 7018,
      "bells": 7019,
      "Quite": 7020,
      "sadly": 7021,
      "indicated": 7022,
      "security": 7023,
      "Gentle": 7024,
      "satisfy": 7025,
      "JACK": 7026,
      "Mow": 7027,
      "SH": 7028,
      "Sou": 7029,
      "inhabited": 7030,
      "widest": 7031,
      "veil": 7032,
      "lime": 7033,
      "himselfe": 7034,
      "ifully": 7035,
      "dispos": 7036,
      "prey": 7037,
      "lightning": 7038,
      "Marion": 7039,
      "supposing": 7040,
      "jeune": 7041,
      "Allen": 7042,
      "seeming": 7043,
      "resolute": 7044,
      "employe": 7045,
      "gravely": 7046,
      "displayed": 7047,
      "results": 7048,
      "injury": 7049,
      "specified": 7050,
      "multitude": 7051,
      "Tilney": 7052,
      "Bart": 7053,
      "Nat": 7054,
      "Nancy": 7055,
      "VIII": 7056,
      "leness": 7057,
      "liability": 7058,
      "tives": 7059,
      "dislike": 7060,
      "otion": 7061,
      "dont": 7062,
      "divers": 7063,
      "corrid": 7064,
      "blance": 7065,
      "pile": 7066,
      "easier": 7067,
      "barrel": 7068,
      "roads": 7069,
      "shortly": 7070,
      "transcri": 7071,
      "twilight": 7072,
      "pherd": 7073,
      "remote": 7074,
      "ANTON": 7075,
      "registered": 7076,
      "narrative": 7077,
      "proprietary": 7078,
      ",[": 7079,
      "Di": 7080,
      "Lest": 7081,
      "kki": 7082,
      "mul": 7083,
      "ingham": 7084,
      "stretch": 7085,
      "unlike": 7086,
      "woe": 7087,
      "spear": 7088,
      "counts": 7089,
      "landed": 7090,
      "temps": 7091,
      "subtle": 7092,
      "runs": 7093,
      "damages": 7094,
      "admire": 7095,
      "atively": 7096,
      "goddess": 7097,
      "thirst": 7098,
      "attempted": 7099,
      "fashioned": 7100,
      "beaten": 7101,
      "BETH": 7102,
      "Phileas": 7103,
      "prudence": 7104,
      "recommend": 7105,
      "restrictions": 7106,
      "_I_": 7107,
      "assurance": 7108,
      "Planchet": 7109,
      "Wentworth": 7110,
      "Mowgli": 7111,
      "200": 7112,
      "60": 7113,
      "Jer": 7114,
      "foul": 7115,
      "vere": 7116,
      "esser": 7117,
      "disease": 7118,
      "plac": 7119,
      "lub": 7120,
      "engers": 7121,
      "interests": 7122,
      "floating": 7123,
      "blessing": 7124,
      "represented": 7125,
      "injured": 7126,
      "intervals": 7127,
      "gigantic": 7128,
      "CO": 7129,
      "PG": 7130,
      "soften": 7131,
      "assi": 7132,
      "rifle": 7133,
      "manager": 7134,
      "passions": 7135,
      "aval": 7136,
      "solitude": 7137,
      "refuge": 7138,
      "keeps": 7139,
      "opportunities": 7140,
      "hiding": 7141,
      "tiny": 7142,
      "propriety": 7143,
      "contradi": 7144,
      "29": 7145,
      "Bess": 7146,
      "City": 7147,
      "June": 7148,
      "squire": 7149,
      "tun": 7150,
      "ware": 7151,
      "reject": 7152,
      "repose": 7153,
      "term": 7154,
      "whilst": 7155,
      "blush": 7156,
      "secured": 7157,
      "complexion": 7158,
      "marrying": 7159,
      "reported": 7160,
      "axe": 7161,
      "niece": 7162,
      ".»": 7163,
      "Hence": 7164,
      "jaw": 7165,
      "mun": 7166,
      "mamma": 7167,
      "vine": 7168,
      "stuck": 7169,
      "ider": 7170,
      "loaded": 7171,
      "shy": 7172,
      "portrait": 7173,
      "harsh": 7174,
      "anguish": 7175,
      "prayers": 7176,
      "Canad": 7177,
      "widow": 7178,
      "Authority": 7179,
      "Paul": 7180,
      "Washing": 7181,
      "uno": 7182,
      "thic": 7183,
      "stum": 7184,
      "bewild": 7185,
      "begins": 7186,
      "Nove": 7187,
      "Mari": 7188,
      "subscri": 7189,
      "returns": 7190,
      "summit": 7191,
      "Englishman": 7192,
      "Laws": 7193,
      "physician": 7194,
      "Murdo": 7195,
      "scientific": 7196,
      "Han": 7197,
      "eut": 7198,
      "enabled": 7199,
      "seal": 7200,
      "pel": 7201,
      "dock": 7202,
      "restored": 7203,
      "comrades": 7204,
      "civili": 7205,
      "plains": 7206,
      "goods": 7207,
      "restless": 7208,
      "ENCE": 7209,
      "Both": 7210,
      "Something": 7211,
      "probability": 7212,
      "puis": 7213,
      "deserve": 7214,
      "wounds": 7215,
      "graceful": 7216,
      "McMurdo": 7217,
      "article": 7218,
      "_that_": 7219,
      "40": 7220,
      "Pass": 7221,
      "_S": 7222,
      "bou": 7223,
      "iance": 7224,
      "jer": 7225,
      "pé": 7226,
      "encore": 7227,
      "itations": 7228,
      "vement": 7229,
      "advert": 7230,
      "suitable": 7231,
      "amen": 7232,
      "hotel": 7233,
      "offering": 7234,
      "screw": 7235,
      "mery": 7236,
      "tember": 7237,
      "struggling": 7238,
      "decide": 7239,
      "Norris": 7240,
      "contrast": 7241,
      "swung": 7242,
      "alteration": 7243,
      "affectionate": 7244,
      "hibition": 7245,
      "attracted": 7246,
      "dirty": 7247,
      "Italy": 7248,
      "monstrous": 7249,
      "neglected": 7250,
      "September": 7251,
      "Collins": 7252,
      "Marija": 7253,
      "EL": 7254,
      "NON": 7255,
      "cities": 7256,
      "rog": 7257,
      "suis": 7258,
      "lap": 7259,
      "conqu": 7260,
      "clay": 7261,
      "desk": 7262,
      "council": 7263,
      "insist": 7264,
      "vessels": 7265,
      "ambition": 7266,
      "prominently": 7267,
      "November": 7268,
      "BREA": 7269,
      "Next": 7270,
      "Rich": 7271,
      "fasc": 7272,
      "jun": 7273,
      "knot": 7274,
      "mie": 7275,
      "schol": 7276,
      "’.": 7277,
      "income": 7278,
      "alas": 7279,
      "decor": 7280,
      "posure": 7281,
      "manu": 7282,
      "anta": 7283,
      "shaken": 7284,
      "offended": 7285,
      "Defect": 7286,
      "drops": 7287,
      "petite": 7288,
      "ponder": 7289,
      "expecting": 7290,
      "stirred": 7291,
      "comparison": 7292,
      "enthusias": 7293,
      "Pontell": 7294,
      "ceptible": 7295,
      "MACBETH": 7296,
      "Edi": 7297,
      "_The": 7298,
      "resour": 7299,
      "oms": 7300,
      "readable": 7301,
      "blank": 7302,
      "region": 7303,
      "solution": 7304,
      "Debray": 7305,
      "strangely": 7306,
      "smoking": 7307,
      "vanity": 7308,
      "reflect": 7309,
      "passionate": 7310,
      "Saviour": 7311,
      "recognize": 7312,
      "clerk": 7313,
      "washed": 7314,
      "Terms": 7315,
      "ridiculous": 7316,
      "Wolf": 7317,
      "Socrates": 7318,
      "Hold": 7319,
      "WH": 7320,
      "Winter": 7321,
      "anchor": 7322,
      "itute": 7323,
      "riages": 7324,
      "White": 7325,
      "inkled": 7326,
      "ensions": 7327,
      "maintain": 7328,
      "ruined": 7329,
      "damp": 7330,
      "RECT": 7331,
      "entertained": 7332,
      "gallant": 7333,
      "leaped": 7334,
      "Hawke": 7335,
      "articles": 7336,
      "DIRECT": 7337,
      "Fin": 7338,
      "Gard": 7339,
      "Sum": 7340,
      "dre": 7341,
      "”;": 7342,
      "reminded": 7343,
      "lovers": 7344,
      "losing": 7345,
      "aby": 7346,
      "gomery": 7347,
      "endous": 7348,
      "blew": 7349,
      "positive": 7350,
      "scrat": 7351,
      "donna": 7352,
      "corpor": 7353,
      "implied": 7354,
      "presents": 7355,
      "sentiments": 7356,
      "trifle": 7357,
      "culti": 7358,
      "secrets": 7359,
      "islands": 7360,
      "existed": 7361,
      "situated": 7362,
      "Montgomery": 7363,
      "Washington": 7364,
      "Bas": 7365,
      "ium": 7366,
      "lane": 7367,
      "uary": 7368,
      "local": 7369,
      "finds": 7370,
      "tones": 7371,
      "doubts": 7372,
      "puff": 7373,
      "Lydia": 7374,
      "constitution": 7375,
      "boxes": 7376,
      "ASC": 7377,
      "globe": 7378,
      "START": 7379,
      "specim": 7380,
      "Martin": 7381,
      "indignation": 7382,
      "FULL": 7383,
      "Marionette": 7384,
      "Hawkeye": 7385,
      "26": 7386,
      "EBOOK": 7387,
      "frown": 7388,
      "inous": 7389,
      "retire": 7390,
      "tobac": 7391,
      "decent": 7392,
      "union": 7393,
      "urge": 7394,
      "umes": 7395,
      "angled": 7396,
      "carpet": 7397,
      "joke": 7398,
      "believing": 7399,
      "rugged": 7400,
      "riding": 7401,
      "Donations": 7402,
      "supported": 7403,
      "sharply": 7404,
      "travelling": 7405,
      "federal": 7406,
      "ABILITY": 7407,
      "DES": 7408,
      "wha": 7409,
      "soir": 7410,
      "owl": 7411,
      "shri": 7412,
      "fog": 7413,
      "stole": 7414,
      "stopping": 7415,
      "offence": 7416,
      "Whose": 7417,
      "staying": 7418,
      "toutes": 7419,
      "swiftly": 7420,
      "disclaimer": 7421,
      "Speak": 7422,
      "Royalty": 7423,
      "Scripture": 7424,
      "attacked": 7425,
      "admired": 7426,
      "BREACH": 7427,
      "ASCII": 7428,
      "Night": 7429,
      "bending": 7430,
      "cub": 7431,
      "lur": 7432,
      "vu": 7433,
      "insol": 7434,
      "rela": 7435,
      "tools": 7436,
      "stagg": 7437,
      "usions": 7438,
      "cade": 7439,
      "wolves": 7440,
      "Thor": 7441,
      "lesson": 7442,
      "formats": 7443,
      "happens": 7444,
      "tempest": 7445,
      "Marner": 7446,
      "pril": 7447,
      "LICEN": 7448,
      "electronically": 7449,
      "missing": 7450,
      "infant": 7451,
      "Command": 7452,
      "fools": 7453,
      "toute": 7454,
      "intelligent": 7455,
      "Vanilla": 7456,
      "Redistribut": 7457,
      "plateau": 7458,
      "Franklin": 7459,
      "abandon": 7460,
      "computer": 7461,
      "computers": 7462,
      "WARRANTY": 7463,
      "WARRANTIES": 7464,
      "roused": 7465,
      "DISTRI": 7466,
      "chimney": 7467,
      "AGREE": 7468,
      "DAMAGES": 7469,
      "enthusiasm": 7470,
      "Pontellier": 7471,
      "LICENSE": 7472,
      "DISTRIBUT": 7473,
      "Jes": 7474,
      "Reas": 7475,
      "Sim": 7476,
      "awe": 7477,
      "ev": 7478,
      "attain": 7479,
      "tops": 7480,
      "unnecessary": 7481,
      "cture": 7482,
      "notions": 7483,
      "notwithstanding": 7484,
      "wels": 7485,
      "Think": 7486,
      "boats": 7487,
      "assent": 7488,
      "rightly": 7489,
      "scand": 7490,
      "doubtful": 7491,
      "imagin": 7492,
      "spectacle": 7493,
      "logical": 7494,
      "harmless": 7495,
      "wander": 7496,
      "errors": 7497,
      "assembled": 7498,
      "Jupiter": 7499,
      "tragedy": 7500,
      "parallel": 7501,
      "21": 7502,
      "ahead": 7503,
      "oo": 7504,
      "uf": 7505,
      "lex": 7506,
      "seize": 7507,
      "noi": 7508,
      "ros": 7509,
      "femme": 7510,
      "disgu": 7511,
      "corral": 7512,
      "atted": 7513,
      "lasted": 7514,
      "rug": 7515,
      "judged": 7516,
      "transport": 7517,
      "Madam": 7518,
      "ALGER": 7519,
      "Beaufort": 7520,
      "ROSALI": 7521,
      "ALGERNON": 7522,
      "ROSALIND": 7523,
      "Cal": 7524,
      "DO": 7525,
      "omed": 7526,
      "inform": 7527,
      "inquire": 7528,
      "isho": 7529,
      "hem": 7530,
      "supre": 7531,
      "peas": 7532,
      "illes": 7533,
      "disait": 7534,
      "assass": 7535,
      "overwhel": 7536,
      "whereof": 7537,
      "cheval": 7538,
      "smiles": 7539,
      "adding": 7540,
      "LIA": 7541,
      "Pope": 7542,
      "REW": 7543,
      "satisfactory": 7544,
      "tremble": 7545,
      "simplicity": 7546,
      "sorrows": 7547,
      "banker": 7548,
      "obeyed": 7549,
      "arrangements": 7550,
      "ceremony": 7551,
      "Lennox": 7552,
      "activity": 7553,
      "Farm": 7554,
      "Over": 7555,
      "_P": 7556,
      "cured": 7557,
      "ii": 7558,
      "wreck": 7559,
      "inated": 7560,
      "uncomfortable": 7561,
      "convict": 7562,
      "conquer": 7563,
      "essential": 7564,
      "shill": 7565,
      "permit": 7566,
      "ifies": 7567,
      "residence": 7568,
      "shalt": 7569,
      "marquis": 7570,
      "throng": 7571,
      "spiritual": 7572,
      "pretended": 7573,
      "occasional": 7574,
      "flames": 7575,
      "River": 7576,
      "universal": 7577,
      "Faith": 7578,
      "Wickham": 7579,
      "tobacco": 7580,
      "Sever": 7581,
      "Ten": 7582,
      "bat": 7583,
      "dried": 7584,
      "gna": 7585,
      "ique": 7586,
      "web": 7587,
      "ication": 7588,
      "iller": 7589,
      "venir": 7590,
      "opy": 7591,
      "maybe": 7592,
      "bris": 7593,
      "scenes": 7594,
      "flushed": 7595,
      "bonnet": 7596,
      "poets": 7597,
      "policeman": 7598,
      "Grecian": 7599,
      "Fernand": 7600,
      "Apost": 7601,
      "Nob": 7602,
      "cue": 7603,
      "dangers": 7604,
      "elli": 7605,
      "lind": 7606,
      "ratt": 7607,
      "slaughter": 7608,
      "alling": 7609,
      "abstra": 7610,
      "via": 7611,
      "formid": 7612,
      "ranks": 7613,
      "Soon": 7614,
      "guilt": 7615,
      "visitors": 7616,
      "dale": 7617,
      "furnish": 7618,
      "Among": 7619,
      "preparing": 7620,
      "expedition": 7621,
      "newspaper": 7622,
      "Musketeers": 7623,
      "medicine": 7624,
      "Club": 7625,
      "Dio": 7626,
      "Vol": 7627,
      "bby": 7628,
      "fest": 7629,
      "wri": 7630,
      "utus": 7631,
      "exchange": 7632,
      "hore": 7633,
      "hoping": 7634,
      "wolf": 7635,
      "shaw": 7636,
      "glancing": 7637,
      "tort": 7638,
      "purposes": 7639,
      "shores": 7640,
      "skir": 7641,
      "bargain": 7642,
      "naturall": 7643,
      "gazing": 7644,
      "heavenly": 7645,
      "examining": 7646,
      "moonlight": 7647,
      "proposal": 7648,
      "extremity": 7649,
      "GHT": 7650,
      "April": 7651,
      "Cam": 7652,
      "vor": 7653,
      "impressed": 7654,
      "saving": 7655,
      "upward": 7656,
      "oppress": 7657,
      "pris": 7658,
      "holds": 7659,
      "advise": 7660,
      "harmony": 7661,
      "LEAR": 7662,
      "proceeding": 7663,
      "saloon": 7664,
      "belonging": 7665,
      "reserved": 7666,
      "Reason": 7667,
      "Mist": 7668,
      "Russi": 7669,
      "Tru": 7670,
      "hedge": 7671,
      "wre": 7672,
      "relu": 7673,
      "chuck": 7674,
      "sue": 7675,
      "ami": 7676,
      "peril": 7677,
      "exclam": 7678,
      "purse": 7679,
      "approve": 7680,
      "Peace": 7681,
      "borrow": 7682,
      "extravag": 7683,
      "UTUS": 7684,
      "bitterly": 7685,
      "President": 7686,
      "cretion": 7687,
      "BRUTUS": 7688,
      "appetite": 7689,
      "ET": 7690,
      "FIR": 7691,
      "Gun": 7692,
      "List": 7693,
      "nt": 7694,
      "remed": 7695,
      "asy": 7696,
      "arrow": 7697,
      "charms": 7698,
      "wilt": 7699,
      "ader": 7700,
      "rai": 7701,
      "female": 7702,
      "ample": 7703,
      "perfection": 7704,
      "tenant": 7705,
      "Château": 7706,
      "doubted": 7707,
      "ornament": 7708,
      "statement": 7709,
      "elsewhere": 7710,
      "viewed": 7711,
      "breathed": 7712,
      "robin": 7713,
      "condemned": 7714,
      "independent": 7715,
      "Earth": 7716,
      "GO": 7717,
      "honey": 7718,
      "ito": 7719,
      "rud": 7720,
      "sions": 7721,
      "ancor": 7722,
      "unwilling": 7723,
      "whither": 7724,
      "wherever": 7725,
      "park": 7726,
      "natives": 7727,
      "risen": 7728,
      "paint": 7729,
      "RES": 7730,
      "cracy": 7731,
      "anxiously": 7732,
      "wandered": 7733,
      "Should": 7734,
      "slope": 7735,
      "conveyed": 7736,
      "compassion": 7737,
      "parlour": 7738,
      "formidable": 7739,
      "reluct": 7740,
      "Body": 7741,
      "cort": 7742,
      "sele": 7743,
      "neg": 7744,
      "dove": 7745,
      "plants": 7746,
      "placing": 7747,
      "stomach": 7748,
      "rights": 7749,
      "lieutenant": 7750,
      "maintained": 7751,
      "Dece": 7752,
      "completed": 7753,
      "Brutus": 7754,
      "breathe": 7755,
      "issue": 7756,
      "weeping": 7757,
      "published": 7758,
      "Nobody": 7759,
      "FIRST": 7760,
      "Bel": 7761,
      "Ox": 7762,
      "Pi": 7763,
      "hee": 7764,
      "liv": 7765,
      "sails": 7766,
      "accounts": 7767,
      "scrut": 7768,
      "undoubtedly": 7769,
      "THER": 7770,
      "services": 7771,
      "Ange": 7772,
      "spiration": 7773,
      "blos": 7774,
      "wheels": 7775,
      "seconds": 7776,
      "collar": 7777,
      "spectacles": 7778,
      "occupation": 7779,
      "punish": 7780,
      "ANDREW": 7781,
      "endeavor": 7782,
      "Magua": 7783,
      "wrath": 7784,
      "gathering": 7785,
      "wilderness": 7786,
      "December": 7787,
      "bation": 7788,
      "dur": 7789,
      "eous": 7790,
      "fence": 7791,
      "rash": 7792,
      "ari": 7793,
      "lait": 7794,
      "conception": 7795,
      "sia": 7796,
      "monde": 7797,
      "donner": 7798,
      "gente": 7799,
      "decay": 7800,
      "regarding": 7801,
      "drum": 7802,
      "suggestion": 7803,
      "Mercy": 7804,
      "paces": 7805,
      "Woodman": 7806,
      "reserve": 7807,
      "weapons": 7808,
      "revealed": 7809,
      "Castle": 7810,
      "Mansfield": 7811,
      "JU": 7812,
      "Res": 7813,
      "fret": 7814,
      "mould": 7815,
      "chances": 7816,
      "iring": 7817,
      "sovere": 7818,
      "oused": 7819,
      "trail": 7820,
      "bler": 7821,
      "generation": 7822,
      "infli": 7823,
      "Love": 7824,
      "étaient": 7825,
      "thankful": 7826,
      "Brother": 7827,
      "Buckingham": 7828,
      "preferred": 7829,
      "passages": 7830,
      "sovereign": 7831,
      "ert": 7832,
      "attained": 7833,
      "edy": 7834,
      "rode": 7835,
      "tex": 7836,
      "mente": 7837,
      "achie": 7838,
      "training": 7839,
      "answers": 7840,
      "career": 7841,
      "Delaw": 7842,
      "claims": 7843,
      "Exact": 7844,
      "instruments": 7845,
      "arguments": 7846,
      "neighborhood": 7847,
      "interpreted": 7848,
      "manufact": 7849,
      "Od": 7850,
      "batt": 7851,
      "inspector": 7852,
      "atives": 7853,
      "illum": 7854,
      "indire": 7855,
      "shouldn": 7856,
      "downstairs": 7857,
      "distri": 7858,
      "Stand": 7859,
      "Chin": 7860,
      "relative": 7861,
      "badly": 7862,
      "Remember": 7863,
      "exists": 7864,
      "determination": 7865,
      "eagerness": 7866,
      "detail": 7867,
      "politics": 7868,
      "guessed": 7869,
      "delicacy": 7870,
      "climbed": 7871,
      "desirable": 7872,
      "messenger": 7873,
      "Court": 7874,
      "Bal": 7875,
      "Wu": 7876,
      "nne": 7877,
      "pha": 7878,
      "til": 7879,
      "estern": 7880,
      "roman": 7881,
      "suited": 7882,
      "shrub": 7883,
      "tee": 7884,
      "ista": 7885,
      "sibly": 7886,
      "ciò": 7887,
      "marble": 7888,
      "scal": 7889,
      "attending": 7890,
      "passes": 7891,
      "landing": 7892,
      "tales": 7893,
      "institution": 7894,
      "electric": 7895,
      "waved": 7896,
      "earthly": 7897,
      "dazz": 7898,
      "travelled": 7899,
      "gallop": 7900,
      "struggled": 7901,
      "farewell": 7902,
      "literature": 7903,
      "improvement": 7904,
      "elegant": 7905,
      "marquise": 7906,
      "MALVOLIO": 7907,
      "canti": 7908,
      "ien": 7909,
      "oy": 7910,
      "push": 7911,
      "tres": 7912,
      "stif": 7913,
      "verted": 7914,
      "rily": 7915,
      "sable": 7916,
      "quitted": 7917,
      "mathem": 7918,
      "faut": 7919,
      "willingly": 7920,
      "clum": 7921,
      "chambre": 7922,
      "resting": 7923,
      "joining": 7924,
      "tempor": 7925,
      "purchase": 7926,
      "Peters": 7927,
      "Excell": 7928,
      "velvet": 7929,
      "respects": 7930,
      "pitch": 7931,
      "guarded": 7932,
      "conducted": 7933,
      "fatigue": 7934,
      "Exactly": 7935,
      "LAND": 7936,
      "jug": 7937,
      "ued": 7938,
      "wretch": 7939,
      "recalled": 7940,
      "icked": 7941,
      "shell": 7942,
      "gossi": 7943,
      "bery": 7944,
      "opposition": 7945,
      "presume": 7946,
      "ppi": 7947,
      "spared": 7948,
      "throne": 7949,
      "lawn": 7950,
      "draught": 7951,
      "miser": 7952,
      "advancing": 7953,
      "suming": 7954,
      "grows": 7955,
      "dreamed": 7956,
      "ALL": 7957,
      "hasty": 7958,
      "reflections": 7959,
      "balls": 7960,
      "shouting": 7961,
      "indicate": 7962,
      "reverence": 7963,
      "threatened": 7964,
      "trunk": 7965,
      "permanent": 7966,
      "Creat": 7967,
      "Elle": 7968,
      "Know": 7969,
      "PAR": 7970,
      "daring": 7971,
      "fund": 7972,
      "swo": 7973,
      "haw": 7974,
      "roth": 7975,
      "dew": 7976,
      "perché": 7977,
      "prec": 7978,
      "corrup": 7979,
      "closure": 7980,
      "quelle": 7981,
      "ungle": 7982,
      "Make": 7983,
      "trot": 7984,
      "dedu": 7985,
      "neglect": 7986,
      "votre": 7987,
      "Aye": 7988,
      "bind": 7989,
      "incon": 7990,
      "recent": 7991,
      "coats": 7992,
      "wearing": 7993,
      "cane": 7994,
      "reduced": 7995,
      "emperor": 7996,
      "curtains": 7997,
      "submit": 7998,
      "Unless": 7999,
      ",—“": 8000,
      "honours": 8001,
      "hopeless": 8002,
      "growth": 8003,
      "rational": 8004,
      "rubbed": 8005,
      "afforded": 8006,
      "dishon": 8007,
      "awakened": 8008,
      "Apo": 8009,
      "Pur": 8010,
      "Pry": 8011,
      "Te": 8012,
      "cous": 8013,
      "emotions": 8014,
      "œur": 8015,
      "token": 8016,
      "esy": 8017,
      "sale": 8018,
      "lots": 8019,
      "worry": 8020,
      "ultim": 8021,
      "maxim": 8022,
      "thereby": 8023,
      "hereafter": 8024,
      "corrupt": 8025,
      "survi": 8026,
      "breed": 8027,
      "bodily": 8028,
      "charges": 8029,
      "answering": 8030,
      "Being": 8031,
      "chiefs": 8032,
      "petit": 8033,
      "youthful": 8034,
      "sinking": 8035,
      "crimson": 8036,
      "22": 8037,
      "Caval": 8038,
      "Kings": 8039,
      "Ya": 8040,
      "ean": 8041,
      "ôt": 8042,
      "inte": 8043,
      "remor": 8044,
      "edges": 8045,
      "nom": 8046,
      "ria": 8047,
      "uncertain": 8048,
      "appla": 8049,
      "hom": 8050,
      "clus": 8051,
      "landlord": 8052,
      "brood": 8053,
      "lawyer": 8054,
      "southern": 8055,
      "meanwhile": 8056,
      "sunset": 8057,
      "studied": 8058,
      "practically": 8059,
      "measures": 8060,
      "resistance": 8061,
      "canoe": 8062,
      "Put": 8063,
      "stret": 8064,
      "imposed": 8065,
      "sailed": 8066,
      "convent": 8067,
      "ained": 8068,
      "ounded": 8069,
      "uding": 8070,
      "aks": 8071,
      "denied": 8072,
      "xture": 8073,
      "Coven": 8074,
      "jewels": 8075,
      "bonheur": 8076,
      "leads": 8077,
      "craft": 8078,
      "favourable": 8079,
      "crossing": 8080,
      "measured": 8081,
      "Justice": 8082,
      "persuas": 8083,
      "detective": 8084,
      "invention": 8085,
      "renewed": 8086,
      "intentions": 8087,
      "Grand": 8088,
      "70": 8089,
      "Aj": 8090,
      "Egy": 8091,
      "SU": 8092,
      "Sho": 8093,
      "Tha": 8094,
      "awoke": 8095,
      "cush": 8096,
      "cards": 8097,
      "revi": 8098,
      "seed": 8099,
      "ghastly": 8100,
      "ulated": 8101,
      "pau": 8102,
      "parce": 8103,
      "distra": 8104,
      "torment": 8105,
      "elements": 8106,
      "subdu": 8107,
      "privile": 8108,
      "warn": 8109,
      "penny": 8110,
      "accessible": 8111,
      "fifth": 8112,
      "July": 8113,
      "eldest": 8114,
      "Patro": 8115,
      "significant": 8116,
      "seventy": 8117,
      "inspired": 8118,
      "Summer": 8119,
      "supreme": 8120,
      "Rus": 8121,
      "WOR": 8122,
      "bast": 8123,
      "mouse": 8124,
      "thetic": 8125,
      "ater": 8126,
      "moan": 8127,
      "abide": 8128,
      "wept": 8129,
      "ica": 8130,
      "onet": 8131,
      "wholes": 8132,
      "spell": 8133,
      "chev": 8134,
      "acts": 8135,
      "charity": 8136,
      "subs": 8137,
      "versed": 8138,
      "block": 8139,
      "ONA": 8140,
      "devotion": 8141,
      "assume": 8142,
      "calmly": 8143,
      "belongs": 8144,
      "pirates": 8145,
      "neighbors": 8146,
      "bewildered": 8147,
      "aussi": 8148,
      "cular": 8149,
      "jet": 8150,
      "inity": 8151,
      "leagues": 8152,
      "stated": 8153,
      "whit": 8154,
      "adorn": 8155,
      "nephe": 8156,
      "accus": 8157,
      "holid": 8158,
      "Whatever": 8159,
      "udge": 8160,
      "brut": 8161,
      "brute": 8162,
      "fiend": 8163,
      "steeds": 8164,
      "waving": 8165,
      "delicious": 8166,
      "instructions": 8167,
      "cheerfully": 8168,
      "application": 8169,
      "tutto": 8170,
      "drowned": 8171,
      "corridor": 8172,
      "Lestrade": 8173,
      "Basil": 8174,
      "CAP": 8175,
      "Cale": 8176,
      "DON": 8177,
      "IM": 8178,
      "Ob": 8179,
      "Wait": 8180,
      "Yu": 8181,
      "dent": 8182,
      "danced": 8183,
      "dumb": 8184,
      "ip": 8185,
      "tid": 8186,
      "revel": 8187,
      "issi": 8188,
      "sters": 8189,
      "près": 8190,
      "dismay": 8191,
      "disorder": 8192,
      "scra": 8193,
      "avant": 8194,
      "element": 8195,
      "autumn": 8196,
      "destined": 8197,
      "accepting": 8198,
      "gleam": 8199,
      "exerc": 8200,
      "suspicious": 8201,
      "pistol": 8202,
      "accurate": 8203,
      "Spanish": 8204,
      "Caleb": 8205,
      "Da": 8206,
      "Mess": 8207,
      "RY": 8208,
      "Sto": 8209,
      "Vida": 8210,
      "bend": 8211,
      "thorn": 8212,
      "heures": 8213,
      "melo": 8214,
      "locks": 8215,
      "perpe": 8216,
      "induced": 8217,
      "igneur": 8218,
      "scre": 8219,
      "file": 8220,
      "Chic": 8221,
      "volunt": 8222,
      "addressing": 8223,
      "swamp": 8224,
      "genu": 8225,
      "descending": 8226,
      "sensations": 8227,
      "snap": 8228,
      "assembly": 8229,
      "wrapped": 8230,
      "Cranford": 8231,
      "Cavalcanti": 8232,
      "_her": 8233,
      "bough": 8234,
      "tions": 8235,
      "wits": 8236,
      "recall": 8237,
      "seats": 8238,
      "belt": 8239,
      "deceive": 8240,
      "exting": 8241,
      "intens": 8242,
      "marvell": 8243,
      "traced": 8244,
      "feels": 8245,
      "sixteen": 8246,
      "enterprise": 8247,
      "slaves": 8248,
      "hostile": 8249,
      "magic": 8250,
      "esteem": 8251,
      "Listen": 8252,
      "42": 8253,
      "gang": 8254,
      "yaw": 8255,
      "thresh": 8256,
      "ione": 8257,
      "aments": 8258,
      "tyrant": 8259,
      "torted": 8260,
      "nah": 8261,
      "dug": 8262,
      "cours": 8263,
      "toujours": 8264,
      "limits": 8265,
      "persist": 8266,
      "Cape": 8267,
      "hurrying": 8268,
      "rarely": 8269,
      "favorite": 8270,
      "performance": 8271,
      "whirl": 8272,
      "fantastic": 8273,
      "Several": 8274,
      "Ajax": 8275,
      "35": 8276,
      "AD": 8277,
      "Grace": 8278,
      "Harker": 8279,
      "Lis": 8280,
      "Non": 8281,
      "SP": 8282,
      "bun": 8283,
      "repair": 8284,
      "imprison": 8285,
      "terra": 8286,
      "urer": 8287,
      "cigar": 8288,
      "cheap": 8289,
      "embro": 8290,
      "interpret": 8291,
      "treach": 8292,
      "regions": 8293,
      "circl": 8294,
      "natured": 8295,
      "vais": 8296,
      "petto": 8297,
      "succession": 8298,
      "lifting": 8299,
      "Edith": 8300,
      "Prynne": 8301,
      "Bible": 8302,
      "Div": 8303,
      "cant": 8304,
      "dies": 8305,
      "sù": 8306,
      "forgetting": 8307,
      "imer": 8308,
      "irre": 8309,
      "cob": 8310,
      "qua": 8311,
      "rents": 8312,
      "passengers": 8313,
      "crushed": 8314,
      "regards": 8315,
      "capacity": 8316,
      "hearth": 8317,
      "cents": 8318,
      "skil": 8319,
      "palais": 8320,
      "heaps": 8321,
      "procession": 8322,
      "prevailed": 8323,
      "obscure": 8324,
      "British": 8325,
      "Whether": 8326,
      "Patroclus": 8327,
      "Park": 8328,
      "eches": 8329,
      "tête": 8330,
      "vitable": 8331,
      "rem": 8332,
      "chased": 8333,
      "robe": 8334,
      "ira": 8335,
      "unnatural": 8336,
      "moins": 8337,
      "consp": 8338,
      "faults": 8339,
      "theirs": 8340,
      "--”": 8341,
      "tyran": 8342,
      "division": 8343,
      "phen": 8344,
      "corners": 8345,
      "jolly": 8346,
      "honourable": 8347,
      "tempted": 8348,
      "porte": 8349,
      "guardian": 8350,
      "exertion": 8351,
      "gallery": 8352,
      "establishment": 8353,
      "revolver": 8354,
      "bottles": 8355,
      "attentions": 8356,
      "ingenious": 8357,
      "positively": 8358,
      "Chinese": 8359,
      "Russell": 8360,
      "Cons": 8361,
      "Ear": 8362,
      "Five": 8363,
      "Oz": 8364,
      "PU": 8365,
      "Youn": 8366,
      "dic": 8367,
      "vate": 8368,
      "èrent": 8369,
      "ington": 8370,
      "llers": 8371,
      "veins": 8372,
      "poli": 8373,
      "doe": 8374,
      "upright": 8375,
      "perish": 8376,
      "aces": 8377,
      "proving": 8378,
      "cavern": 8379,
      "woo": 8380,
      "yourselves": 8381,
      "justly": 8382,
      "sets": 8383,
      "quires": 8384,
      "maintaining": 8385,
      "Atl": 8386,
      "Union": 8387,
      ".\"]": 8388,
      "passe": 8389,
      "ROME": 8390,
      "machin": 8391,
      "avoided": 8392,
      "farmers": 8393,
      "twisted": 8394,
      "Romeo": 8395,
      "jealousy": 8396,
      "ANTONIO": 8397,
      ";\"": 8398,
      "Bless": 8399,
      "dou": 8400,
      "dashed": 8401,
      "fen": 8402,
      "fishing": 8403,
      "lent": 8404,
      "nou": 8405,
      "uity": 8406,
      "eddy": 8407,
      "usive": 8408,
      "erect": 8409,
      "poster": 8410,
      "perceiving": 8411,
      "exagger": 8412,
      "caval": 8413,
      "disdain": 8414,
      "parlor": 8415,
      "blunder": 8416,
      "charitable": 8417,
      "barbar": 8418,
      "bands": 8419,
      "waking": 8420,
      "strained": 8421,
      "valet": 8422,
      "Frenchman": 8423,
      "Water": 8424,
      "suspicions": 8425,
      "Admir": 8426,
      "questo": 8427,
      "resemblance": 8428,
      "professional": 8429,
      "Child": 8430,
      "consolation": 8431,
      "celebrated": 8432,
      "abruptly": 8433,
      "Gentlemen": 8434,
      "ROMEO": 8435,
      "Person": 8436,
      "Sin": 8437,
      "Tow": 8438,
      "cad": 8439,
      "pare": 8440,
      "inse": 8441,
      "retain": 8442,
      "remind": 8443,
      "towed": 8444,
      "seigneur": 8445,
      "ctic": 8446,
      "ador": 8447,
      "advers": 8448,
      "acute": 8449,
      "aph": 8450,
      "inevitable": 8451,
      "--\"": 8452,
      "county": 8453,
      "carp": 8454,
      "Monday": 8455,
      "nigh": 8456,
      "stricken": 8457,
      "cellar": 8458,
      "quelques": 8459,
      "Brand": 8460,
      "introduction": 8461,
      "songs": 8462,
      "DEMONA": 8463,
      "Subjects": 8464,
      "elephant": 8465,
      "DESDEMONA": 8466,
      "Yaho": 8467,
      "_her_": 8468,
      "Athen": 8469,
      "Emin": 8470,
      "Eug": 8471,
      "IL": 8472,
      "cough": 8473,
      "tables": 8474,
      "atus": 8475,
      "images": 8476,
      "rien": 8477,
      "rapt": 8478,
      "veness": 8479,
      "sermon": 8480,
      "aule": 8481,
      "diet": 8482,
      "vial": 8483,
      "carriages": 8484,
      "airy": 8485,
      "cui": 8486,
      "mixture": 8487,
      "tribe": 8488,
      "fourteen": 8489,
      "tuccio": 8490,
      "Isra": 8491,
      "warmly": 8492,
      "deserved": 8493,
      "educated": 8494,
      "calculate": 8495,
      "gratefully": 8496,
      "prima": 8497,
      "apprehension": 8498,
      "telegraph": 8499,
      "louder": 8500,
      "Abel": 8501,
      "Bates": 8502,
      "Dou": 8503,
      "Fl": 8504,
      "Glau": 8505,
      "Tim": 8506,
      "Tem": 8507,
      "VEN": 8508,
      "pred": 8509,
      "zo": 8510,
      "toms": 8511,
      "escort": 8512,
      "stamp": 8513,
      "sullen": 8514,
      "explor": 8515,
      "udd": 8516,
      "stores": 8517,
      "crou": 8518,
      "horri": 8519,
      "journal": 8520,
      "strengthen": 8521,
      "commands": 8522,
      "Newland": 8523,
      "rapidity": 8524,
      "murdered": 8525,
      "bitterness": 8526,
      "Bertuccio": 8527,
      "stained": 8528,
      "impatiently": 8529,
      "Cora": 8530,
      "organized": 8531,
      "forbidden": 8532,
      "Between": 8533,
      "commenced": 8534,
      "discipl": 8535,
      "Cass": 8536,
      "Eury": 8537,
      "PR": 8538,
      "Part": 8539,
      "gap": 8540,
      "groom": 8541,
      "lance": 8542,
      "mare": 8543,
      "pad": 8544,
      "stare": 8545,
      "behalf": 8546,
      "ceas": 8547,
      "irregular": 8548,
      "noted": 8549,
      "aging": 8550,
      "ilation": 8551,
      "procur": 8552,
      "housekeeper": 8553,
      "gravity": 8554,
      "verses": 8555,
      "mothers": 8556,
      "ANO": 8557,
      "relate": 8558,
      "skins": 8559,
      "production": 8560,
      "Milan": 8561,
      "attempts": 8562,
      "mirror": 8563,
      "Francis": 8564,
      "Febru": 8565,
      "terribly": 8566,
      "affections": 8567,
      "contemplation": 8568,
      "investigation": 8569,
      "eggs": 8570,
      "Half": 8571,
      "commercial": 8572,
      "cousins": 8573,
      "February": 8574,
      "Bed": 8575,
      "Happ": 8576,
      "Mars": 8577,
      "Turn": 8578,
      "iste": 8579,
      "aro": 8580,
      "deaf": 8581,
      "unting": 8582,
      "agle": 8583,
      "disc": 8584,
      "intercourse": 8585,
      "cru": 8586,
      "doorway": 8587,
      "speaker": 8588,
      "symp": 8589,
      "approbation": 8590,
      "suppress": 8591,
      "curiously": 8592,
      "schools": 8593,
      "gloves": 8594,
      "testim": 8595,
      "punished": 8596,
      "ascended": 8597,
      "Martians": 8598,
      "college": 8599,
      "iggins": 8600,
      "Natur": 8601,
      "CA": 8602,
      "Grim": 8603,
      "Pas": 8604,
      "bits": 8605,
      "coff": 8606,
      "gla": 8607,
      "gers": 8608,
      "lto": 8609,
      "rhy": 8610,
      "hered": 8611,
      "motives": 8612,
      "loading": 8613,
      "fected": 8614,
      "hoarse": 8615,
      "planted": 8616,
      "shaped": 8617,
      "eyel": 8618,
      "newly": 8619,
      "giù": 8620,
      "happier": 8621,
      "eff": 8622,
      "visits": 8623,
      "fiery": 8624,
      "vidi": 8625,
      "talent": 8626,
      "Also": 8627,
      "depuis": 8628,
      "garments": 8629,
      "tremendous": 8630,
      "costume": 8631,
      "forests": 8632,
      "stirring": 8633,
      "Feather": 8634,
      "sticks": 8635,
      "prendre": 8636,
      "Canadian": 8637,
      "CES": 8638,
      "Seven": 8639,
      "VER": 8640,
      "bite": 8641,
      "ciful": 8642,
      "lass": 8643,
      "ati": 8644,
      "haught": 8645,
      "lame": 8646,
      "extend": 8647,
      "trum": 8648,
      "pton": 8649,
      "clad": 8650,
      "beforehand": 8651,
      "torture": 8652,
      "giant": 8653,
      "blown": 8654,
      "guided": 8655,
      "covering": 8656,
      "steal": 8657,
      "damage": 8658,
      "gladly": 8659,
      "humor": 8660,
      "filling": 8661,
      "failure": 8662,
      "accomplish": 8663,
      "awaited": 8664,
      "ogne": 8665,
      "liquid": 8666,
      "clasped": 8667,
      "encouraged": 8668,
      "Hartfield": 8669,
      "Apostles": 8670,
      "extingu": 8671,
      "threshold": 8672,
      "HEN": 8673,
      "Wed": 8674,
      "Walter": 8675,
      "gend": 8676,
      "jump": 8677,
      "score": 8678,
      "zza": 8679,
      "inex": 8680,
      "anni": 8681,
      "hears": 8682,
      "haunted": 8683,
      "wasted": 8684,
      "sugar": 8685,
      "rais": 8686,
      "trous": 8687,
      "intoler": 8688,
      "pling": 8689,
      "descent": 8690,
      "trained": 8691,
      "checked": 8692,
      "nail": 8693,
      "valiant": 8694,
      "reasoning": 8695,
      "Within": 8696,
      "expressions": 8697,
      "appropri": 8698,
      "pulling": 8699,
      "confessed": 8700,
      "Suppose": 8701,
      "confirmation": 8702,
      "mathemat": 8703,
      "Bag": 8704,
      "Camp": 8705,
      "Dut": 8706,
      "Dim": 8707,
      "MENT": 8708,
      "_Yaho": 8709,
      "beer": 8710,
      "alt": 8711,
      "herd": 8712,
      "welt": 8713,
      "mant": 8714,
      "restore": 8715,
      "exten": 8716,
      "homes": 8717,
      "natures": 8718,
      "chains": 8719,
      "momentary": 8720,
      "Second": 8721,
      "realized": 8722,
      "dropping": 8723,
      "floated": 8724,
      "Morris": 8725,
      "Really": 8726,
      "expend": 8727,
      "porter": 8728,
      "Hook": 8729,
      "affles": 8730,
      "murderer": 8731,
      "intelligible": 8732,
      "observations": 8733,
      "solemnly": 8734,
      "establish": 8735,
      "excessive": 8736,
      "tossed": 8737,
      "encouragement": 8738,
      "genuine": 8739,
      "marvellous": 8740,
      "Bl": 8741,
      "Ellen": 8742,
      "Les": 8743,
      "POR": 8744,
      "Sar": 8745,
      "is_": 8746,
      "tories": 8747,
      "arrows": 8748,
      "meter": 8749,
      "raft": 8750,
      "weed": 8751,
      "popul": 8752,
      "sharing": 8753,
      "artific": 8754,
      "igne": 8755,
      "nails": 8756,
      "crum": 8757,
      "lugg": 8758,
      "buck": 8759,
      "bese": 8760,
      "depended": 8761,
      "fuor": 8762,
      "fragments": 8763,
      "traveller": 8764,
      "classes": 8765,
      "detach": 8766,
      "moderate": 8767,
      "Jew": 8768,
      "tumult": 8769,
      "ABLE": 8770,
      "steamer": 8771,
      "behaved": 8772,
      "waistcoat": 8773,
      "Susan": 8774,
      "Finally": 8775,
      "dreary": 8776,
      "Summerlee": 8777,
      "Young": 8778,
      "Chim": 8779,
      "Copy": 8780,
      "Flor": 8781,
      "Raffles": 8782,
      "dwelt": 8783,
      "tread": 8784,
      "wages": 8785,
      "reven": 8786,
      "enable": 8787,
      "haul": 8788,
      "haired": 8789,
      "meyer": 8790,
      "wire": 8791,
      "altra": 8792,
      "deer": 8793,
      "demonstr": 8794,
      "abilities": 8795,
      "agers": 8796,
      "ational": 8797,
      "plum": 8798,
      "ppie": 8799,
      "glances": 8800,
      "stillness": 8801,
      "attering": 8802,
      "temple": 8803,
      "spoiled": 8804,
      "include": 8805,
      "sumption": 8806,
      "profits": 8807,
      "Lowick": 8808,
      "Benjam": 8809,
      "breadth": 8810,
      "apparatus": 8811,
      "swallowed": 8812,
      "January": 8813,
      "Badger": 8814,
      "nephew": 8815,
      "Benjamin": 8816,
      "Hy": 8817,
      "Nes": 8818,
      "Sur": 8819,
      "lined": 8820,
      "—‘": 8821,
      "anzi": 8822,
      "esprit": 8823,
      "root": 8824,
      "ceiling": 8825,
      "ardent": 8826,
      "ureau": 8827,
      "thanked": 8828,
      "ledge": 8829,
      "consisted": 8830,
      "cursed": 8831,
      "spoil": 8832,
      "syll": 8833,
      "occasioned": 8834,
      "witch": 8835,
      "burnt": 8836,
      "suspended": 8837,
      "remarkably": 8838,
      "endeavoured": 8839,
      "vigor": 8840,
      "impertin": 8841,
      "coachman": 8842,
      "translation": 8843,
      "panting": 8844,
      "photo": 8845,
      "Pacific": 8846,
      "machinery": 8847,
      "Israel": 8848,
      "HENRY": 8849,
      "AVE": 8850,
      "Dan": 8851,
      "End": 8852,
      "Eppie": 8853,
      "Sel": 8854,
      "Wild": 8855,
      "XIII": 8856,
      "theatre": 8857,
      "asks": 8858,
      "belee": 8859,
      "entend": 8860,
      "defin": 8861,
      "riot": 8862,
      "saith": 8863,
      "model": 8864,
      "urity": 8865,
      "icking": 8866,
      "hook": 8867,
      "inted": 8868,
      "dense": 8869,
      "chariot": 8870,
      "finest": 8871,
      "portions": 8872,
      "mix": 8873,
      "wax": 8874,
      "drawer": 8875,
      "springs": 8876,
      "tempered": 8877,
      "buildings": 8878,
      "confession": 8879,
      "introduce": 8880,
      "development": 8881,
      "Louisa": 8882,
      "desolate": 8883,
      "Thorpe": 8884,
      "brisk": 8885,
      "exclamation": 8886,
      "Chicago": 8887,
      "FOU": 8888,
      "Nep": 8889,
      "Ref": 8890,
      "Vo": 8891,
      "gence": 8892,
      "tz": 8893,
      "énie": 8894,
      "infin": 8895,
      "aristo": 8896,
      "usal": 8897,
      "amour": 8898,
      "composure": 8899,
      "precaution": 8900,
      "types": 8901,
      "stored": 8902,
      "thoughtful": 8903,
      "survive": 8904,
      "blest": 8905,
      "piano": 8906,
      "hearty": 8907,
      "commence": 8908,
      "community": 8909,
      "harder": 8910,
      "remembering": 8911,
      "eyebrows": 8912,
      "announce": 8913,
      "CECI": 8914,
      "punct": 8915,
      "balance": 8916,
      "funny": 8917,
      "masses": 8918,
      "yielded": 8919,
      "intimacy": 8920,
      "fancies": 8921,
      "pierced": 8922,
      "granite": 8923,
      "magistrate": 8924,
      "Eminence": 8925,
      "Copyright": 8926,
      "CECILY": 8927,
      "Ap": 8928,
      "Alex": 8929,
      "CU": 8930,
      "DER": 8931,
      "Ja": 8932,
      "Pun": 8933,
      "Tal": 8934,
      "gno": 8935,
      "ju": 8936,
      "ître": 8937,
      "total": 8938,
      "irresist": 8939,
      "loos": 8940,
      "quanto": 8941,
      "induce": 8942,
      "clung": 8943,
      "Aristo": 8944,
      "grain": 8945,
      "ggy": 8946,
      "bestowed": 8947,
      "Although": 8948,
      "latitude": 8949,
      "swam": 8950,
      "individuals": 8951,
      "teaching": 8952,
      "decidedly": 8953,
      "cruelty": 8954,
      "European": 8955,
      "travelers": 8956,
      "Augustus": 8957,
      "adopted": 8958,
      "saddle": 8959,
      "subdued": 8960,
      "Higgins": 8961,
      "cca": 8962,
      "cket": 8963,
      "cœur": 8964,
      "drow": 8965,
      "ige": 8966,
      "lors": 8967,
      "sins": 8968,
      "anda": 8969,
      "romance": 8970,
      "entre": 8971,
      "mans": 8972,
      "manly": 8973,
      "ambit": 8974,
      "cominci": 8975,
      "derive": 8976,
      "ciel": 8977,
      "earn": 8978,
      "chal": 8979,
      "winding": 8980,
      "wonders": 8981,
      "secre": 8982,
      "bounded": 8983,
      "resolve": 8984,
      "explic": 8985,
      "Julia": 8986,
      "accused": 8987,
      "compliments": 8988,
      "sensitive": 8989,
      "symbo": 8990,
      "potent": 8991,
      "revolution": 8992,
      "XVIII": 8993,
      "darling": 8994,
      "rigid": 8995,
      "dispute": 8996,
      "scale": 8997,
      "scandal": 8998,
      "GAR": 8999,
      "Jam": 9000,
      "Mort": 9001,
      "bars": 9002,
      "mates": 9003,
      "pushing": 9004,
      "toi": 9005,
      "healthy": 9006,
      "itz": 9007,
      "hay": 9008,
      "forbear": 9009,
      "riches": 9010,
      "moist": 9011,
      "laus": 9012,
      "maker": 9013,
      "astro": 9014,
      "chez": 9015,
      "beggar": 9016,
      "ization": 9017,
      "approved": 9018,
      "facility": 9019,
      "gale": 9020,
      "amazed": 9021,
      "rulers": 9022,
      "lunch": 9023,
      "preparations": 9024,
      "attentive": 9025,
      "screamed": 9026,
      "preceding": 9027,
      "whistle": 9028,
      "WITH": 9029,
      "embrace": 9030,
      "Brandon": 9031,
      "Eugénie": 9032,
      "Av": 9033,
      "Ghost": 9034,
      "Io": 9035,
      "Reven": 9036,
      "faster": 9037,
      "lend": 9038,
      "scold": 9039,
      "enclosure": 9040,
      "liking": 9041,
      "detest": 9042,
      "compressed": 9043,
      "oppressed": 9044,
      "undertake": 9045,
      "glas": 9046,
      "phan": 9047,
      "trifling": 9048,
      "Morland": 9049,
      "musical": 9050,
      "TIAN": 9051,
      "secretary": 9052,
      "harvest": 9053,
      "hesitate": 9054,
      "loudly": 9055,
      "wiser": 9056,
      "indicating": 9057,
      "crimes": 9058,
      "Moreover": 9059,
      "creeping": 9060,
      "Victor": 9061,
      "totally": 9062,
      "Featherstone": 9063,
      "Bor": 9064,
      "Gra": 9065,
      "apers": 9066,
      "data": 9067,
      "mu": 9068,
      "mers": 9069,
      "âme": 9070,
      "roots": 9071,
      "improved": 9072,
      "rib": 9073,
      "unts": 9074,
      "loyal": 9075,
      "accommo": 9076,
      "aples": 9077,
      "trim": 9078,
      "wool": 9079,
      "discretion": 9080,
      "previously": 9081,
      "backs": 9082,
      "headlong": 9083,
      "cylind": 9084,
      "Welland": 9085,
      "sunlight": 9086,
      "comfortably": 9087,
      "mortals": 9088,
      "Liber": 9089,
      "addresses": 9090,
      "benevol": 9091,
      "superst": 9092,
      "communicate": 9093,
      "communicated": 9094,
      "terrified": 9095,
      "Green": 9096,
      "luxury": 9097,
      "Hugh": 9098,
      "contrived": 9099,
      "attributed": 9100,
      "deprived": 9101,
      "document": 9102,
      "Douglas": 9103,
      "64": 9104,
      "Oli": 9105,
      "Price": 9106,
      "itutions": 9107,
      "ituted": 9108,
      "coo": 9109,
      "adise": 9110,
      "mois": 9111,
      "feature": 9112,
      "icious": 9113,
      "astron": 9114,
      "fath": 9115,
      "foreseen": 9116,
      "lessons": 9117,
      "northern": 9118,
      "ensed": 9119,
      "THO": 9120,
      "fairy": 9121,
      "hinder": 9122,
      "ONE": 9123,
      "plot": 9124,
      "temptation": 9125,
      "respecting": 9126,
      "harness": 9127,
      "hammer": 9128,
      "eighty": 9129,
      "bench": 9130,
      "blowing": 9131,
      "radiant": 9132,
      "attraction": 9133,
      "issued": 9134,
      "darted": 9135,
      "Accord": 9136,
      "Oxford": 9137,
      "embroid": 9138,
      "Main": 9139,
      "Stop": 9140,
      "Vande": 9141,
      "s_": 9142,
      "urious": 9143,
      "wink": 9144,
      "inconvenience": 9145,
      "stub": 9146,
      "stately": 9147,
      "liken": 9148,
      "rab": 9149,
      "goose": 9150,
      "cannon": 9151,
      "inkling": 9152,
      "speeches": 9153,
      "trag": 9154,
      "vio": 9155,
      "formal": 9156,
      "strongest": 9157,
      "grotes": 9158,
      "flowing": 9159,
      "dreaded": 9160,
      "offices": 9161,
      "washing": 9162,
      "consented": 9163,
      "pillow": 9164,
      "bulk": 9165,
      "Keep": 9166,
      "Cassio": 9167,
      "bundle": 9168,
      "romantic": 9169,
      "Chimneys": 9170,
      "Neptune": 9171,
      "Vandemeyer": 9172,
      "(*": 9173,
      "Bab": 9174,
      "Nearly": 9175,
      "hire": 9176,
      "mered": 9177,
      "mute": 9178,
      "enne": 9179,
      "lei": 9180,
      "vexed": 9181,
      "defi": 9182,
      "loco": 9183,
      "agne": 9184,
      "laps": 9185,
      "quatre": 9186,
      "convert": 9187,
      "shan": 9188,
      "exas": 9189,
      "fox": 9190,
      "cky": 9191,
      "eless": 9192,
      "begging": 9193,
      "sublime": 9194,
      "Method": 9195,
      "catching": 9196,
      "slavery": 9197,
      "thirteen": 9198,
      "memories": 9199,
      "travellers": 9200,
      "hesitating": 9201,
      "reckoned": 9202,
      "frost": 9203,
      "Huron": 9204,
      "newspapers": 9205,
      "Renaud": 9206,
      "perplex": 9207,
      "coffin": 9208,
      "Cre": 9209,
      "IAN": 9210,
      "Rassi": 9211,
      "afore": 9212,
      "fé": 9213,
      "lings": 9214,
      "literary": 9215,
      "pil": 9216,
      "pper": 9217,
      "liable": 9218,
      "doctrine": 9219,
      "apple": 9220,
      "ouncing": 9221,
      "earliest": 9222,
      "mondo": 9223,
      "glowing": 9224,
      "distrust": 9225,
      "nake": 9226,
      "closer": 9227,
      "foundation": 9228,
      "central": 9229,
      "painter": 9230,
      "governed": 9231,
      "courtesy": 9232,
      "citade": 9233,
      "drunken": 9234,
      "McG": 9235,
      "tradition": 9236,
      "philosophers": 9237,
      "discern": 9238,
      "contributions": 9239,
      "soothing": 9240,
      "Admiral": 9241,
      "Hroth": 9242,
      "Liz": 9243,
      "cats": 9244,
      "ois": 9245,
      "sate": 9246,
      "sits": 9247,
      "tac": 9248,
      "retained": 9249,
      "ouver": 9250,
      "ensu": 9251,
      "encies": 9252,
      "hazard": 9253,
      "entit": 9254,
      "rip": 9255,
      "cope": 9256,
      "coarse": 9257,
      "concent": 9258,
      "doom": 9259,
      "berry": 9260,
      "pple": 9261,
      "anging": 9262,
      "marine": 9263,
      "cratic": 9264,
      "chapter": 9265,
      "imped": 9266,
      "timid": 9267,
      "questa": 9268,
      "ANIO": 9269,
      "nier": 9270,
      "IND": 9271,
      "tuo": 9272,
      "viewing": 9273,
      "archy": 9274,
      "culture": 9275,
      "ringing": 9276,
      "mount": 9277,
      "evils": 9278,
      "breathless": 9279,
      "impressions": 9280,
      "bullet": 9281,
      "Moreau": 9282,
      "Shakes": 9283,
      "tolerably": 9284,
      "faculties": 9285,
      "remedy": 9286,
      "Nestor": 9287,
      "Day": 9288,
      "Mach": 9289,
      "PLA": 9290,
      "Scho": 9291,
      "foun": 9292,
      "fits": 9293,
      "naught": 9294,
      "père": 9295,
      "deemed": 9296,
      "soms": 9297,
      "butler": 9298,
      "sheets": 9299,
      "rescue": 9300,
      "plough": 9301,
      "plais": 9302,
      "clue": 9303,
      "Invisible": 9304,
      "merchant": 9305,
      "curse": 9306,
      "Religion": 9307,
      "studies": 9308,
      "oblige": 9309,
      "palm": 9310,
      "lotte": 9311,
      "faintly": 9312,
      "customs": 9313,
      "preparation": 9314,
      "civility": 9315,
      "Jenky": 9316,
      "telegram": 9317,
      "searched": 9318,
      "annoyed": 9319,
      "Apollo": 9320,
      "Dep": 9321,
      "Ferr": 9322,
      "Greg": 9323,
      "Mé": 9324,
      "fere": 9325,
      "frant": 9326,
      "jou": 9327,
      "lus": 9328,
      "muff": 9329,
      "swore": 9330,
      "rein": 9331,
      "reception": 9332,
      "forgiven": 9333,
      "unaccount": 9334,
      "outline": 9335,
      "poco": 9336,
      "mances": 9337,
      "respected": 9338,
      "ulation": 9339,
      "Hear": 9340,
      "justified": 9341,
      "rons": 9342,
      "energet": 9343,
      "timber": 9344,
      "center": 9345,
      "statements": 9346,
      "numerable": 9347,
      "identify": 9348,
      "realize": 9349,
      "ctors": 9350,
      "treasures": 9351,
      "recommended": 9352,
      "performances": 9353,
      "flick": 9354,
      "incredible": 9355,
      "MARIA": 9356,
      "pattern": 9357,
      "ishop": 9358,
      "texts": 9359,
      "Place": 9360,
      "Tues": 9361,
      "XI": 9362,
      "ail": 9363,
      "border": 9364,
      "fitting": 9365,
      "gens": 9366,
      "sworn": 9367,
      "vary": 9368,
      "western": 9369,
      "rebell": 9370,
      "itect": 9371,
      "alight": 9372,
      "quity": 9373,
      "shepherd": 9374,
      "actor": 9375,
      "tile": 9376,
      "Inspector": 9377,
      "parler": 9378,
      "Soci": 9379,
      "merch": 9380,
      "blade": 9381,
      "ruccio": 9382,
      "shocked": 9383,
      "pays": 9384,
      "flock": 9385,
      "shades": 9386,
      "convince": 9387,
      "dusty": 9388,
      "desirous": 9389,
      "Castruccio": 9390,
      "brandy": 9391,
      "convicts": 9392,
      "wholesome": 9393,
      "carpenter": 9394,
      "Jenkyns": 9395,
      "45": 9396,
      "Hum": 9397,
      "Ret": 9398,
      "_she": 9399,
      "bian": 9400,
      "dition": 9401,
      "uan": 9402,
      "islat": 9403,
      "hable": 9404,
      "lain": 9405,
      "quot": 9406,
      "aca": 9407,
      "exult": 9408,
      "exchanged": 9409,
      "dismal": 9410,
      "paths": 9411,
      "thoughtfully": 9412,
      "diame": 9413,
      "smith": 9414,
      "quivering": 9415,
      "guards": 9416,
      "Stir": 9417,
      "subsequ": 9418,
      "flashed": 9419,
      "shoe": 9420,
      "financi": 9421,
      "openly": 9422,
      "continual": 9423,
      "plays": 9424,
      "colours": 9425,
      "wildly": 9426,
      "zzo": 9427,
      "temperature": 9428,
      "calmness": 9429,
      "Charlotte": 9430,
      "Ceci": 9431,
      "threatening": 9432,
      "channel": 9433,
      "infinitely": 9434,
      "modified": 9435,
      "CASSIUS": 9436,
      "Hamlet": 9437,
      "photograph": 9438,
      "Eri": 9439,
      "LOU": 9440,
      "awhile": 9441,
      "mum": 9442,
      "wars": 9443,
      "thief": 9444,
      "innumerable": 9445,
      "rejoined": 9446,
      "nostri": 9447,
      "quin": 9448,
      "endless": 9449,
      "Thurs": 9450,
      "ieson": 9451,
      "parte": 9452,
      "psy": 9453,
      "repul": 9454,
      "childish": 9455,
      "confine": 9456,
[...]
